{
  "added_tokens": [
    {
      "content": "<|pad|>",
      "id": 0,
      "lstrip": false,
      "normalized": false,
      "rstrip": false,
      "single_word": false,
      "special": true
    },
    {
      "content": "<|startoftext|>",
      "id": 1,
      "lstrip": false,
      "normalized": false,
      "rstrip": false,
      "single_word": false,
      "special": true
    },
    {
      "content": "<|endoftext|>",
      "id": 2,
      "lstrip": false,
      "normalized": false,
      "rstrip": false,
      "single_word": false,
      "special": true
    },
    {
      "content": "<|fim_pre|>",
      "id": 3,
      "lstrip": false,
      "normalized": false,
      "rstrip": false,
      "single_word": false,
      "special": true
    },
    {
      "content": "<|fim_mid|>",
      "id": 4,
      "lstrip": false,
      "normalized": false,
      "rstrip": false,
      "single_word": false,
      "special": true
    },
    {
      "content": "<|fim_suf|>",
      "id": 5,
      "lstrip": false,
      "normalized": false,
      "rstrip": false,
      "single_word": false,
      "special": true
    },
    {
      "content": "<|im_start|>",
      "id": 6,
      "lstrip": false,
      "normalized": false,
      "rstrip": false,
      "single_word": false,
      "special": true
    },
    {
      "content": "<|im_end|>",
      "id": 7,
      "lstrip": false,
      "normalized": false,
      "rstrip": false,
      "single_word": false,
      "special": true
    },
    {
      "content": "<|tool_list_start|>",
      "id": 8,
      "lstrip": false,
      "normalized": false,
      "rstrip": false,
      "single_word": false,
      "special": true
    },
    {
      "content": "<|tool_list_end|>",
      "id": 9,
      "lstrip": false,
      "normalized": false,
      "rstrip": false,
      "single_word": false,
      "special": true
    },
    {
      "content": "<|tool_call_start|>",
      "id": 10,
      "lstrip": false,
      "normalized": false,
      "rstrip": false,
      "single_word": false,
      "special": false
    },
    {
      "content": "<|tool_call_end|>",
      "id": 11,
      "lstrip": false,
      "normalized": false,
      "rstrip": false,
      "single_word": false,
      "special": false
    },
    {
      "content": "<|tool_response_start|>",
      "id": 12,
      "lstrip": false,
      "normalized": false,
      "rstrip": false,
      "single_word": false,
      "special": true
    },
    {
      "content": "<|tool_response_end|>",
      "id": 13,
      "lstrip": false,
      "normalized": false,
      "rstrip": false,
      "single_word": false,
      "special": true
    },
    {
      "content": "<|reserved_6|>",
      "id": 16,
      "lstrip": false,
      "normalized": false,
      "rstrip": false,
      "single_word": false,
      "special": true
    },
    {
      "content": "<|reserved_7|>",
      "id": 17,
      "lstrip": false,
      "normalized": false,
      "rstrip": false,
      "single_word": false,
      "special": true
    },
    {
      "content": "<|reserved_8|>",
      "id": 18,
      "lstrip": false,
      "normalized": false,
      "rstrip": false,
      "single_word": false,
      "special": true
    },
    {
      "content": "<|reserved_9|>",
      "id": 19,
      "lstrip": false,
      "normalized": false,
      "rstrip": false,
      "single_word": false,
      "special": true
    },
    {
      "content": "<|reserved_10|>",
      "id": 20,
      "lstrip": false,
      "normalized": false,
      "rstrip": false,
      "single_word": false,
      "special": true
    },
    {
      "content": "<|reserved_11|>",
      "id": 21,
      "lstrip": false,
      "normalized": false,
      "rstrip": false,
      "single_word": false,
      "special": true
    },
    {
      "content": "<|reserved_12|>",
      "id": 22,
      "lstrip": false,
      "normalized": false,
      "rstrip": false,
      "single_word": false,
      "special": true
    },
    {
      "content": "<|reserved_13|>",
      "id": 23,
      "lstrip": false,
      "normalized": false,
      "rstrip": false,
      "single_word": false,
      "special": true
    },
    {
      "content": "<|reserved_14|>",
      "id": 24,
      "lstrip": false,
      "normalized": false,
      "rstrip": false,
      "single_word": false,
      "special": true
    },
    {
      "content": "<|reserved_15|>",
      "id": 25,
      "lstrip": false,
      "normalized": false,
      "rstrip": false,
      "single_word": false,
      "special": true
    },
    {
      "content": "<|reserved_16|>",
      "id": 26,
      "lstrip": false,
      "normalized": false,
      "rstrip": false,
      "single_word": false,
      "special": true
    },
    {
      "content": "<|reserved_17|>",
      "id": 27,
      "lstrip": false,
      "normalized": false,
      "rstrip": false,
      "single_word": false,
      "special": true
    },
    {
      "content": "<|reserved_18|>",
      "id": 28,
      "lstrip": false,
      "normalized": false,
      "rstrip": false,
      "single_word": false,
      "special": true
    },
    {
      "content": "<|reserved_19|>",
      "id": 29,
      "lstrip": false,
      "normalized": false,
      "rstrip": false,
      "single_word": false,
      "special": true
    },
    {
      "content": "<|reserved_20|>",
      "id": 30,
      "lstrip": false,
      "normalized": false,
      "rstrip": false,
      "single_word": false,
      "special": true
    },
    {
      "content": "<|reserved_21|>",
      "id": 31,
      "lstrip": false,
      "normalized": false,
      "rstrip": false,
      "single_word": false,
      "special": true
    },
    {
      "content": "<|reserved_22|>",
      "id": 32,
      "lstrip": false,
      "normalized": false,
      "rstrip": false,
      "single_word": false,
      "special": true
    },
    {
      "content": "<|reserved_23|>",
      "id": 33,
      "lstrip": false,
      "normalized": false,
      "rstrip": false,
      "single_word": false,
      "special": true
    },
    {
      "content": "<|reserved_24|>",
      "id": 34,
      "lstrip": false,
      "normalized": false,
      "rstrip": false,
      "single_word": false,
      "special": true
    },
    {
      "content": "<|reserved_25|>",
      "id": 35,
      "lstrip": false,
      "normalized": false,
      "rstrip": false,
      "single_word": false,
      "special": true
    },
    {
      "content": "<|reserved_26|>",
      "id": 36,
      "lstrip": false,
      "normalized": false,
      "rstrip": false,
      "single_word": false,
      "special": true
    },
    {
      "content": "<|reserved_27|>",
      "id": 37,
      "lstrip": false,
      "normalized": false,
      "rstrip": false,
      "single_word": false,
      "special": true
    },
    {
      "content": "<|reserved_28|>",
      "id": 38,
      "lstrip": false,
      "normalized": false,
      "rstrip": false,
      "single_word": false,
      "special": true
    },
    {
      "content": "<|reserved_29|>",
      "id": 39,
      "lstrip": false,
      "normalized": false,
      "rstrip": false,
      "single_word": false,
      "special": true
    },
    {
      "content": "<|reserved_30|>",
      "id": 40,
      "lstrip": false,
      "normalized": false,
      "rstrip": false,
      "single_word": false,
      "special": true
    },
    {
      "content": "<|reserved_31|>",
      "id": 41,
      "lstrip": false,
      "normalized": false,
      "rstrip": false,
      "single_word": false,
      "special": true
    },
    {
      "content": "<|reserved_32|>",
      "id": 42,
      "lstrip": false,
      "normalized": false,
      "rstrip": false,
      "single_word": false,
      "special": true
    },
    {
      "content": "<|reserved_33|>",
      "id": 43,
      "lstrip": false,
      "normalized": false,
      "rstrip": false,
      "single_word": false,
      "special": true
    },
    {
      "content": "<|reserved_34|>",
      "id": 44,
      "lstrip": false,
      "normalized": false,
      "rstrip": false,
      "single_word": false,
      "special": true
    },
    {
      "content": "<|reserved_35|>",
      "id": 45,
      "lstrip": false,
      "normalized": false,
      "rstrip": false,
      "single_word": false,
      "special": true
    },
    {
      "content": "<|reserved_36|>",
      "id": 46,
      "lstrip": false,
      "normalized": false,
      "rstrip": false,
      "single_word": false,
      "special": true
    },
    {
      "content": "<|reserved_37|>",
      "id": 47,
      "lstrip": false,
      "normalized": false,
      "rstrip": false,
      "single_word": false,
      "special": true
    },
    {
      "content": "<|reserved_38|>",
      "id": 48,
      "lstrip": false,
      "normalized": false,
      "rstrip": false,
      "single_word": false,
      "special": true
    },
    {
      "content": "<|reserved_39|>",
      "id": 49,
      "lstrip": false,
      "normalized": false,
      "rstrip": false,
      "single_word": false,
      "special": true
    },
    {
      "content": "<|reserved_40|>",
      "id": 50,
      "lstrip": false,
      "normalized": false,
      "rstrip": false,
      "single_word": false,
      "special": true
    },
    {
      "content": "<|reserved_41|>",
      "id": 51,
      "lstrip": false,
      "normalized": false,
      "rstrip": false,
      "single_word": false,
      "special": true
    },
    {
      "content": "<|reserved_42|>",
      "id": 52,
      "lstrip": false,
      "normalized": false,
      "rstrip": false,
      "single_word": false,
      "special": true
    },
    {
      "content": "<|reserved_43|>",
      "id": 53,
      "lstrip": false,
      "normalized": false,
      "rstrip": false,
      "single_word": false,
      "special": true
    },
    {
      "content": "<|reserved_44|>",
      "id": 54,
      "lstrip": false,
      "normalized": false,
      "rstrip": false,
      "single_word": false,
      "special": true
    },
    {
      "content": "<|reserved_45|>",
      "id": 55,
      "lstrip": false,
      "normalized": false,
      "rstrip": false,
      "single_word": false,
      "special": true
    },
    {
      "content": "<|reserved_46|>",
      "id": 56,
      "lstrip": false,
      "normalized": false,
      "rstrip": false,
      "single_word": false,
      "special": true
    },
    {
      "content": "<|reserved_47|>",
      "id": 57,
      "lstrip": false,
      "normalized": false,
      "rstrip": false,
      "single_word": false,
      "special": true
    },
    {
      "content": "<|reserved_48|>",
      "id": 58,
      "lstrip": false,
      "normalized": false,
      "rstrip": false,
      "single_word": false,
      "special": true
    },
    {
      "content": "<|reserved_49|>",
      "id": 59,
      "lstrip": false,
      "normalized": false,
      "rstrip": false,
      "single_word": false,
      "special": true
    },
    {
      "content": "<|reserved_50|>",
      "id": 60,
      "lstrip": false,
      "normalized": false,
      "rstrip": false,
      "single_word": false,
      "special": true
    },
    {
      "content": "<|reserved_51|>",
      "id": 61,
      "lstrip": false,
      "normalized": false,
      "rstrip": false,
      "single_word": false,
      "special": true
    },
    {
      "content": "<|reserved_52|>",
      "id": 62,
      "lstrip": false,
      "normalized": false,
      "rstrip": false,
      "single_word": false,
      "special": true
    },
    {
      "content": "<|reserved_53|>",
      "id": 63,
      "lstrip": false,
      "normalized": false,
      "rstrip": false,
      "single_word": false,
      "special": true
    },
    {
      "content": "<|reserved_54|>",
      "id": 64,
      "lstrip": false,
      "normalized": false,
      "rstrip": false,
      "single_word": false,
      "special": true
    },
    {
      "content": "<|reserved_55|>",
      "id": 65,
      "lstrip": false,
      "normalized": false,
      "rstrip": false,
      "single_word": false,
      "special": true
    },
    {
      "content": "<|reserved_56|>",
      "id": 66,
      "lstrip": false,
      "normalized": false,
      "rstrip": false,
      "single_word": false,
      "special": true
    },
    {
      "content": "<|reserved_57|>",
      "id": 67,
      "lstrip": false,
      "normalized": false,
      "rstrip": false,
      "single_word": false,
      "special": true
    },
    {
      "content": "<|reserved_58|>",
      "id": 68,
      "lstrip": false,
      "normalized": false,
      "rstrip": false,
      "single_word": false,
      "special": true
    },
    {
      "content": "<|reserved_59|>",
      "id": 69,
      "lstrip": false,
      "normalized": false,
      "rstrip": false,
      "single_word": false,
      "special": true
    },
    {
      "content": "<|reserved_60|>",
      "id": 70,
      "lstrip": false,
      "normalized": false,
      "rstrip": false,
      "single_word": false,
      "special": true
    },
    {
      "content": "<|reserved_61|>",
      "id": 71,
      "lstrip": false,
      "normalized": false,
      "rstrip": false,
      "single_word": false,
      "special": true
    },
    {
      "content": "<|reserved_62|>",
      "id": 72,
      "lstrip": false,
      "normalized": false,
      "rstrip": false,
      "single_word": false,
      "special": true
    },
    {
      "content": "<|reserved_63|>",
      "id": 73,
      "lstrip": false,
      "normalized": false,
      "rstrip": false,
      "single_word": false,
      "special": true
    },
    {
      "content": "<|reserved_64|>",
      "id": 74,
      "lstrip": false,
      "normalized": false,
      "rstrip": false,
      "single_word": false,
      "special": true
    },
    {
      "content": "<|reserved_65|>",
      "id": 75,
      "lstrip": false,
      "normalized": false,
      "rstrip": false,
      "single_word": false,
      "special": true
    },
    {
      "content": "<|reserved_66|>",
      "id": 76,
      "lstrip": false,
      "normalized": false,
      "rstrip": false,
      "single_word": false,
      "special": true
    },
    {
      "content": "<|reserved_67|>",
      "id": 77,
      "lstrip": false,
      "normalized": false,
      "rstrip": false,
      "single_word": false,
      "special": true
    },
    {
      "content": "<|reserved_68|>",
      "id": 78,
      "lstrip": false,
      "normalized": false,
      "rstrip": false,
      "single_word": false,
      "special": true
    },
    {
      "content": "<|reserved_69|>",
      "id": 79,
      "lstrip": false,
      "normalized": false,
      "rstrip": false,
      "single_word": false,
      "special": true
    },
    {
      "content": "<|reserved_70|>",
      "id": 80,
      "lstrip": false,
      "normalized": false,
      "rstrip": false,
      "single_word": false,
      "special": true
    },
    {
      "content": "<|reserved_71|>",
      "id": 81,
      "lstrip": false,
      "normalized": false,
      "rstrip": false,
      "single_word": false,
      "special": true
    },
    {
      "content": "<|reserved_72|>",
      "id": 82,
      "lstrip": false,
      "normalized": false,
      "rstrip": false,
      "single_word": false,
      "special": true
    },
    {
      "content": "<|reserved_73|>",
      "id": 83,
      "lstrip": false,
      "normalized": false,
      "rstrip": false,
      "single_word": false,
      "special": true
    },
    {
      "content": "<|reserved_74|>",
      "id": 84,
      "lstrip": false,
      "normalized": false,
      "rstrip": false,
      "single_word": false,
      "special": true
    },
    {
      "content": "<|reserved_75|>",
      "id": 85,
      "lstrip": false,
      "normalized": false,
      "rstrip": false,
      "single_word": false,
      "special": true
    },
    {
      "content": "<|reserved_76|>",
      "id": 86,
      "lstrip": false,
      "normalized": false,
      "rstrip": false,
      "single_word": false,
      "special": true
    },
    {
      "content": "<|reserved_77|>",
      "id": 87,
      "lstrip": false,
      "normalized": false,
      "rstrip": false,
      "single_word": false,
      "special": true
    },
    {
      "content": "<|reserved_78|>",
      "id": 88,
      "lstrip": false,
      "normalized": false,
      "rstrip": false,
      "single_word": false,
      "special": true
    },
    {
      "content": "<|reserved_79|>",
      "id": 89,
      "lstrip": false,
      "normalized": false,
      "rstrip": false,
      "single_word": false,
      "special": true
    },
    {
      "content": "<|reserved_80|>",
      "id": 90,
      "lstrip": false,
      "normalized": false,
      "rstrip": false,
      "single_word": false,
      "special": true
    },
    {
      "content": "<|reserved_81|>",
      "id": 91,
      "lstrip": false,
      "normalized": false,
      "rstrip": false,
      "single_word": false,
      "special": true
    },
    {
      "content": "<|reserved_82|>",
      "id": 92,
      "lstrip": false,
      "normalized": false,
      "rstrip": false,
      "single_word": false,
      "special": true
    },
    {
      "content": "<|reserved_83|>",
      "id": 93,
      "lstrip": false,
      "normalized": false,
      "rstrip": false,
      "single_word": false,
      "special": true
    },
    {
      "content": "<|reserved_84|>",
      "id": 94,
      "lstrip": false,
      "normalized": false,
      "rstrip": false,
      "single_word": false,
      "special": true
    },
    {
      "content": "<|reserved_85|>",
      "id": 95,
      "lstrip": false,
      "normalized": false,
      "rstrip": false,
      "single_word": false,
      "special": true
    },
    {
      "content": "<|reserved_86|>",
      "id": 96,
      "lstrip": false,
      "normalized": false,
      "rstrip": false,
      "single_word": false,
      "special": true
    },
    {
      "content": "<|reserved_87|>",
      "id": 97,
      "lstrip": false,
      "normalized": false,
      "rstrip": false,
      "single_word": false,
      "special": true
    },
    {
      "content": "<|reserved_88|>",
      "id": 98,
      "lstrip": false,
      "normalized": false,
      "rstrip": false,
      "single_word": false,
      "special": true
    },
    {
      "content": "<|reserved_89|>",
      "id": 99,
      "lstrip": false,
      "normalized": false,
      "rstrip": false,
      "single_word": false,
      "special": true
    },
    {
      "content": "<|reserved_90|>",
      "id": 100,
      "lstrip": false,
      "normalized": false,
      "rstrip": false,
      "single_word": false,
      "special": true
    },
    {
      "content": "<|reserved_91|>",
      "id": 101,
      "lstrip": false,
      "normalized": false,
      "rstrip": false,
      "single_word": false,
      "special": true
    },
    {
      "content": "<|reserved_92|>",
      "id": 102,
      "lstrip": false,
      "normalized": false,
      "rstrip": false,
      "single_word": false,
      "special": true
    },
    {
      "content": "<|reserved_93|>",
      "id": 103,
      "lstrip": false,
      "normalized": false,
      "rstrip": false,
      "single_word": false,
      "special": true
    },
    {
      "content": "<|reserved_94|>",
      "id": 104,
      "lstrip": false,
      "normalized": false,
      "rstrip": false,
      "single_word": false,
      "special": true
    },
    {
      "content": "<|reserved_95|>",
      "id": 105,
      "lstrip": false,
      "normalized": false,
      "rstrip": false,
      "single_word": false,
      "special": true
    },
    {
      "content": "<|reserved_96|>",
      "id": 106,
      "lstrip": false,
      "normalized": false,
      "rstrip": false,
      "single_word": false,
      "special": true
    },
    {
      "content": "<|reserved_97|>",
      "id": 107,
      "lstrip": false,
      "normalized": false,
      "rstrip": false,
      "single_word": false,
      "special": true
    },
    {
      "content": "<|reserved_98|>",
      "id": 108,
      "lstrip": false,
      "normalized": false,
      "rstrip": false,
      "single_word": false,
      "special": true
    },
    {
      "content": "<|reserved_99|>",
      "id": 109,
      "lstrip": false,
      "normalized": false,
      "rstrip": false,
      "single_word": false,
      "special": true
    },
    {
      "content": "<|reserved_100|>",
      "id": 110,
      "lstrip": false,
      "normalized": false,
      "rstrip": false,
      "single_word": false,
      "special": true
    },
    {
      "content": "<|reserved_101|>",
      "id": 111,
      "lstrip": false,
      "normalized": false,
      "rstrip": false,
      "single_word": false,
      "special": true
    },
    {
      "content": "<|reserved_102|>",
      "id": 112,
      "lstrip": false,
      "normalized": false,
      "rstrip": false,
      "single_word": false,
      "special": true
    },
    {
      "content": "<|reserved_103|>",
      "id": 113,
      "lstrip": false,
      "normalized": false,
      "rstrip": false,
      "single_word": false,
      "special": true
    },
    {
      "content": "<|reserved_104|>",
      "id": 114,
      "lstrip": false,
      "normalized": false,
      "rstrip": false,
      "single_word": false,
      "special": true
    },
    {
      "content": "<|reserved_105|>",
      "id": 115,
      "lstrip": false,
      "normalized": false,
      "rstrip": false,
      "single_word": false,
      "special": true
    },
    {
      "content": "<|reserved_106|>",
      "id": 116,
      "lstrip": false,
      "normalized": false,
      "rstrip": false,
      "single_word": false,
      "special": true
    },
    {
      "content": "<|reserved_107|>",
      "id": 117,
      "lstrip": false,
      "normalized": false,
      "rstrip": false,
      "single_word": false,
      "special": true
    },
    {
      "content": "<|reserved_108|>",
      "id": 118,
      "lstrip": false,
      "normalized": false,
      "rstrip": false,
      "single_word": false,
      "special": true
    },
    {
      "content": "<|reserved_109|>",
      "id": 119,
      "lstrip": false,
      "normalized": false,
      "rstrip": false,
      "single_word": false,
      "special": true
    },
    {
      "content": "<|reserved_110|>",
      "id": 120,
      "lstrip": false,
      "normalized": false,
      "rstrip": false,
      "single_word": false,
      "special": true
    },
    {
      "content": "<|reserved_111|>",
      "id": 121,
      "lstrip": false,
      "normalized": false,
      "rstrip": false,
      "single_word": false,
      "special": true
    },
    {
      "content": "<|reserved_112|>",
      "id": 122,
      "lstrip": false,
      "normalized": false,
      "rstrip": false,
      "single_word": false,
      "special": true
    },
    {
      "content": "<|reserved_113|>",
      "id": 123,
      "lstrip": false,
      "normalized": false,
      "rstrip": false,
      "single_word": false,
      "special": true
    },
    {
      "content": "<|reserved_114|>",
      "id": 124,
      "lstrip": false,
      "normalized": false,
      "rstrip": false,
      "single_word": false,
      "special": true
    },
    {
      "content": "<|reserved_115|>",
      "id": 125,
      "lstrip": false,
      "normalized": false,
      "rstrip": false,
      "single_word": false,
      "special": true
    },
    {
      "content": "<|reserved_116|>",
      "id": 126,
      "lstrip": false,
      "normalized": false,
      "rstrip": false,
      "single_word": false,
      "special": true
    },
    {
      "content": "<|reserved_117|>",
      "id": 127,
      "lstrip": false,
      "normalized": false,
      "rstrip": false,
      "single_word": false,
      "special": true
    },
    {
      "content": "<|audio_start|>",
      "id": 128,
      "lstrip": false,
      "normalized": false,
      "rstrip": false,
      "single_word": false,
      "special": true
    },
    {
      "content": "<|text_start|>",
      "id": 129,
      "lstrip": false,
      "normalized": false,
      "rstrip": false,
      "single_word": false,
      "special": true
    },
    {
      "content": "<|text_end|>",
      "id": 130,
      "lstrip": false,
      "normalized": false,
      "rstrip": false,
      "single_word": false,
      "special": true
    },
    {
      "content": "<|mixed_start|>",
      "id": 131,
      "lstrip": false,
      "normalized": false,
      "rstrip": false,
      "single_word": false,
      "special": true
    },
    {
      "content": "<|mixed_end|>",
      "id": 132,
      "lstrip": false,
      "normalized": false,
      "rstrip": false,
      "single_word": false,
      "special": true
    },
    {
      "content": "<|reserved_123|>",
      "id": 133,
      "lstrip": false,
      "normalized": false,
      "rstrip": false,
      "single_word": false,
      "special": true
    },
    {
      "content": "<|reserved_124|>",
      "id": 134,
      "lstrip": false,
      "normalized": false,
      "rstrip": false,
      "single_word": false,
      "special": true
    },
    {
      "content": "<|reserved_125|>",
      "id": 135,
      "lstrip": false,
      "normalized": false,
      "rstrip": false,
      "single_word": false,
      "special": true
    },
    {
      "content": "<|reserved_126|>",
      "id": 136,
      "lstrip": false,
      "normalized": false,
      "rstrip": false,
      "single_word": false,
      "special": true
    },
    {
      "content": "<|reserved_127|>",
      "id": 137,
      "lstrip": false,
      "normalized": false,
      "rstrip": false,
      "single_word": false,
      "special": true
    },
    {
      "content": "<|reserved_128|>",
      "id": 138,
      "lstrip": false,
      "normalized": false,
      "rstrip": false,
      "single_word": false,
      "special": true
    },
    {
      "content": "<|reserved_129|>",
      "id": 139,
      "lstrip": false,
      "normalized": false,
      "rstrip": false,
      "single_word": false,
      "special": true
    },
    {
      "content": "<|reserved_130|>",
      "id": 140,
      "lstrip": false,
      "normalized": false,
      "rstrip": false,
      "single_word": false,
      "special": true
    },
    {
      "content": "<|reserved_131|>",
      "id": 141,
      "lstrip": false,
      "normalized": false,
      "rstrip": false,
      "single_word": false,
      "special": true
    },
    {
      "content": "<|reserved_132|>",
      "id": 142,
      "lstrip": false,
      "normalized": false,
      "rstrip": false,
      "single_word": false,
      "special": true
    },
    {
      "content": "<|reserved_133|>",
      "id": 143,
      "lstrip": false,
      "normalized": false,
      "rstrip": false,
      "single_word": false,
      "special": true
    },
    {
      "content": "<|reserved_134|>",
      "id": 144,
      "lstrip": false,
      "normalized": false,
      "rstrip": false,
      "single_word": false,
      "special": true
    },
    {
      "content": "<|reserved_135|>",
      "id": 145,
      "lstrip": false,
      "normalized": false,
      "rstrip": false,
      "single_word": false,
      "special": true
    },
    {
      "content": "<|reserved_136|>",
      "id": 146,
      "lstrip": false,
      "normalized": false,
      "rstrip": false,
      "single_word": false,
      "special": true
    },
    {
      "content": "<|reserved_137|>",
      "id": 147,
      "lstrip": false,
      "normalized": false,
      "rstrip": false,
      "single_word": false,
      "special": true
    },
    {
      "content": "<|reserved_138|>",
      "id": 148,
      "lstrip": false,
      "normalized": false,
      "rstrip": false,
      "single_word": false,
      "special": true
    },
    {
      "content": "<|reserved_139|>",
      "id": 149,
      "lstrip": false,
      "normalized": false,
      "rstrip": false,
      "single_word": false,
      "special": true
    },
    {
      "content": "<|reserved_140|>",
      "id": 150,
      "lstrip": false,
      "normalized": false,
      "rstrip": false,
      "single_word": false,
      "special": true
    },
    {
      "content": "<|reserved_141|>",
      "id": 151,
      "lstrip": false,
      "normalized": false,
      "rstrip": false,
      "single_word": false,
      "special": true
    },
    {
      "content": "<|reserved_142|>",
      "id": 152,
      "lstrip": false,
      "normalized": false,
      "rstrip": false,
      "single_word": false,
      "special": true
    },
    {
      "content": "<|reserved_143|>",
      "id": 153,
      "lstrip": false,
      "normalized": false,
      "rstrip": false,
      "single_word": false,
      "special": true
    },
    {
      "content": "<|reserved_144|>",
      "id": 154,
      "lstrip": false,
      "normalized": false,
      "rstrip": false,
      "single_word": false,
      "special": true
    },
    {
      "content": "<|reserved_145|>",
      "id": 155,
      "lstrip": false,
      "normalized": false,
      "rstrip": false,
      "single_word": false,
      "special": true
    },
    {
      "content": "<|reserved_146|>",
      "id": 156,
      "lstrip": false,
      "normalized": false,
      "rstrip": false,
      "single_word": false,
      "special": true
    },
    {
      "content": "<|reserved_147|>",
      "id": 157,
      "lstrip": false,
      "normalized": false,
      "rstrip": false,
      "single_word": false,
      "special": true
    },
    {
      "content": "<|reserved_148|>",
      "id": 158,
      "lstrip": false,
      "normalized": false,
      "rstrip": false,
      "single_word": false,
      "special": true
    },
    {
      "content": "<|reserved_149|>",
      "id": 159,
      "lstrip": false,
      "normalized": false,
      "rstrip": false,
      "single_word": false,
      "special": true
    },
    {
      "content": "<|reserved_150|>",
      "id": 160,
      "lstrip": false,
      "normalized": false,
      "rstrip": false,
      "single_word": false,
      "special": true
    },
    {
      "content": "<|reserved_151|>",
      "id": 161,
      "lstrip": false,
      "normalized": false,
      "rstrip": false,
      "single_word": false,
      "special": true
    },
    {
      "content": "<|reserved_152|>",
      "id": 162,
      "lstrip": false,
      "normalized": false,
      "rstrip": false,
      "single_word": false,
      "special": true
    },
    {
      "content": "<|reserved_153|>",
      "id": 163,
      "lstrip": false,
      "normalized": false,
      "rstrip": false,
      "single_word": false,
      "special": true
    },
    {
      "content": "<|reserved_154|>",
      "id": 164,
      "lstrip": false,
      "normalized": false,
      "rstrip": false,
      "single_word": false,
      "special": true
    },
    {
      "content": "<|reserved_155|>",
      "id": 165,
      "lstrip": false,
      "normalized": false,
      "rstrip": false,
      "single_word": false,
      "special": true
    },
    {
      "content": "<|reserved_156|>",
      "id": 166,
      "lstrip": false,
      "normalized": false,
      "rstrip": false,
      "single_word": false,
      "special": true
    },
    {
      "content": "<|reserved_157|>",
      "id": 167,
      "lstrip": false,
      "normalized": false,
      "rstrip": false,
      "single_word": false,
      "special": true
    },
    {
      "content": "<|reserved_158|>",
      "id": 168,
      "lstrip": false,
      "normalized": false,
      "rstrip": false,
      "single_word": false,
      "special": true
    },
    {
      "content": "<|reserved_159|>",
      "id": 169,
      "lstrip": false,
      "normalized": false,
      "rstrip": false,
      "single_word": false,
      "special": true
    },
    {
      "content": "<|reserved_160|>",
      "id": 170,
      "lstrip": false,
      "normalized": false,
      "rstrip": false,
      "single_word": false,
      "special": true
    },
    {
      "content": "<|reserved_161|>",
      "id": 171,
      "lstrip": false,
      "normalized": false,
      "rstrip": false,
      "single_word": false,
      "special": true
    },
    {
      "content": "<|reserved_162|>",
      "id": 172,
      "lstrip": false,
      "normalized": false,
      "rstrip": false,
      "single_word": false,
      "special": true
    },
    {
      "content": "<|reserved_163|>",
      "id": 173,
      "lstrip": false,
      "normalized": false,
      "rstrip": false,
      "single_word": false,
      "special": true
    },
    {
      "content": "<|reserved_164|>",
      "id": 174,
      "lstrip": false,
      "normalized": false,
      "rstrip": false,
      "single_word": false,
      "special": true
    },
    {
      "content": "<|reserved_165|>",
      "id": 175,
      "lstrip": false,
      "normalized": false,
      "rstrip": false,
      "single_word": false,
      "special": true
    },
    {
      "content": "<|reserved_166|>",
      "id": 176,
      "lstrip": false,
      "normalized": false,
      "rstrip": false,
      "single_word": false,
      "special": true
    },
    {
      "content": "<|reserved_167|>",
      "id": 177,
      "lstrip": false,
      "normalized": false,
      "rstrip": false,
      "single_word": false,
      "special": true
    },
    {
      "content": "<|reserved_168|>",
      "id": 178,
      "lstrip": false,
      "normalized": false,
      "rstrip": false,
      "single_word": false,
      "special": true
    },
    {
      "content": "<|reserved_169|>",
      "id": 179,
      "lstrip": false,
      "normalized": false,
      "rstrip": false,
      "single_word": false,
      "special": true
    },
    {
      "content": "<|reserved_170|>",
      "id": 180,
      "lstrip": false,
      "normalized": false,
      "rstrip": false,
      "single_word": false,
      "special": true
    },
    {
      "content": "<|reserved_171|>",
      "id": 181,
      "lstrip": false,
      "normalized": false,
      "rstrip": false,
      "single_word": false,
      "special": true
    },
    {
      "content": "<|reserved_172|>",
      "id": 182,
      "lstrip": false,
      "normalized": false,
      "rstrip": false,
      "single_word": false,
      "special": true
    },
    {
      "content": "<|reserved_173|>",
      "id": 183,
      "lstrip": false,
      "normalized": false,
      "rstrip": false,
      "single_word": false,
      "special": true
    },
    {
      "content": "<|reserved_174|>",
      "id": 184,
      "lstrip": false,
      "normalized": false,
      "rstrip": false,
      "single_word": false,
      "special": true
    },
    {
      "content": "<|reserved_175|>",
      "id": 185,
      "lstrip": false,
      "normalized": false,
      "rstrip": false,
      "single_word": false,
      "special": true
    },
    {
      "content": "<|reserved_176|>",
      "id": 186,
      "lstrip": false,
      "normalized": false,
      "rstrip": false,
      "single_word": false,
      "special": true
    },
    {
      "content": "<|reserved_177|>",
      "id": 187,
      "lstrip": false,
      "normalized": false,
      "rstrip": false,
      "single_word": false,
      "special": true
    },
    {
      "content": "<|reserved_178|>",
      "id": 188,
      "lstrip": false,
      "normalized": false,
      "rstrip": false,
      "single_word": false,
      "special": true
    },
    {
      "content": "<|reserved_179|>",
      "id": 189,
      "lstrip": false,
      "normalized": false,
      "rstrip": false,
      "single_word": false,
      "special": true
    },
    {
      "content": "<|reserved_180|>",
      "id": 190,
      "lstrip": false,
      "normalized": false,
      "rstrip": false,
      "single_word": false,
      "special": true
    },
    {
      "content": "<|reserved_181|>",
      "id": 191,
      "lstrip": false,
      "normalized": false,
      "rstrip": false,
      "single_word": false,
      "special": true
    },
    {
      "content": "<|reserved_182|>",
      "id": 192,
      "lstrip": false,
      "normalized": false,
      "rstrip": false,
      "single_word": false,
      "special": true
    },
    {
      "content": "<|reserved_183|>",
      "id": 193,
      "lstrip": false,
      "normalized": false,
      "rstrip": false,
      "single_word": false,
      "special": true
    },
    {
      "content": "<|reserved_184|>",
      "id": 194,
      "lstrip": false,
      "normalized": false,
      "rstrip": false,
      "single_word": false,
      "special": true
    },
    {
      "content": "<|reserved_185|>",
      "id": 195,
      "lstrip": false,
      "normalized": false,
      "rstrip": false,
      "single_word": false,
      "special": true
    },
    {
      "content": "<|reserved_186|>",
      "id": 196,
      "lstrip": false,
      "normalized": false,
      "rstrip": false,
      "single_word": false,
      "special": true
    },
    {
      "content": "<|reserved_187|>",
      "id": 197,
      "lstrip": false,
      "normalized": false,
      "rstrip": false,
      "single_word": false,
      "special": true
    },
    {
      "content": "<|reserved_188|>",
      "id": 198,
      "lstrip": false,
      "normalized": false,
      "rstrip": false,
      "single_word": false,
      "special": true
    },
    {
      "content": "<|reserved_189|>",
      "id": 199,
      "lstrip": false,
      "normalized": false,
      "rstrip": false,
      "single_word": false,
      "special": true
    },
    {
      "content": "<|reserved_190|>",
      "id": 200,
      "lstrip": false,
      "normalized": false,
      "rstrip": false,
      "single_word": false,
      "special": true
    },
    {
      "content": "<|reserved_191|>",
      "id": 201,
      "lstrip": false,
      "normalized": false,
      "rstrip": false,
      "single_word": false,
      "special": true
    },
    {
      "content": "<|reserved_192|>",
      "id": 202,
      "lstrip": false,
      "normalized": false,
      "rstrip": false,
      "single_word": false,
      "special": true
    },
    {
      "content": "<|reserved_193|>",
      "id": 203,
      "lstrip": false,
      "normalized": false,
      "rstrip": false,
      "single_word": false,
      "special": true
    },
    {
      "content": "<|reserved_194|>",
      "id": 204,
      "lstrip": false,
      "normalized": false,
      "rstrip": false,
      "single_word": false,
      "special": true
    },
    {
      "content": "<|reserved_195|>",
      "id": 205,
      "lstrip": false,
      "normalized": false,
      "rstrip": false,
      "single_word": false,
      "special": true
    },
    {
      "content": "<|reserved_196|>",
      "id": 206,
      "lstrip": false,
      "normalized": false,
      "rstrip": false,
      "single_word": false,
      "special": true
    },
    {
      "content": "<|reserved_197|>",
      "id": 207,
      "lstrip": false,
      "normalized": false,
      "rstrip": false,
      "single_word": false,
      "special": true
    },
    {
      "content": "<|reserved_198|>",
      "id": 208,
      "lstrip": false,
      "normalized": false,
      "rstrip": false,
      "single_word": false,
      "special": true
    },
    {
      "content": "<|reserved_199|>",
      "id": 209,
      "lstrip": false,
      "normalized": false,
      "rstrip": false,
      "single_word": false,
      "special": true
    },
    {
      "content": "<|reserved_200|>",
      "id": 210,
      "lstrip": false,
      "normalized": false,
      "rstrip": false,
      "single_word": false,
      "special": true
    },
    {
      "content": "<|reserved_201|>",
      "id": 211,
      "lstrip": false,
      "normalized": false,
      "rstrip": false,
      "single_word": false,
      "special": true
    },
    {
      "content": "<|reserved_202|>",
      "id": 212,
      "lstrip": false,
      "normalized": false,
      "rstrip": false,
      "single_word": false,
      "special": true
    },
    {
      "content": "<|reserved_203|>",
      "id": 213,
      "lstrip": false,
      "normalized": false,
      "rstrip": false,
      "single_word": false,
      "special": true
    },
    {
      "content": "<|reserved_204|>",
      "id": 214,
      "lstrip": false,
      "normalized": false,
      "rstrip": false,
      "single_word": false,
      "special": true
    },
    {
      "content": "<|reserved_205|>",
      "id": 215,
      "lstrip": false,
      "normalized": false,
      "rstrip": false,
      "single_word": false,
      "special": true
    },
    {
      "content": "<|reserved_206|>",
      "id": 216,
      "lstrip": false,
      "normalized": false,
      "rstrip": false,
      "single_word": false,
      "special": true
    },
    {
      "content": "<|reserved_207|>",
      "id": 217,
      "lstrip": false,
      "normalized": false,
      "rstrip": false,
      "single_word": false,
      "special": true
    },
    {
      "content": "<|reserved_208|>",
      "id": 218,
      "lstrip": false,
      "normalized": false,
      "rstrip": false,
      "single_word": false,
      "special": true
    },
    {
      "content": "<|reserved_209|>",
      "id": 219,
      "lstrip": false,
      "normalized": false,
      "rstrip": false,
      "single_word": false,
      "special": true
    },
    {
      "content": "<|reserved_210|>",
      "id": 220,
      "lstrip": false,
      "normalized": false,
      "rstrip": false,
      "single_word": false,
      "special": true
    },
    {
      "content": "<|reserved_211|>",
      "id": 221,
      "lstrip": false,
      "normalized": false,
      "rstrip": false,
      "single_word": false,
      "special": true
    },
    {
      "content": "<|reserved_212|>",
      "id": 222,
      "lstrip": false,
      "normalized": false,
      "rstrip": false,
      "single_word": false,
      "special": true
    },
    {
      "content": "<|reserved_213|>",
      "id": 223,
      "lstrip": false,
      "normalized": false,
      "rstrip": false,
      "single_word": false,
      "special": true
    },
    {
      "content": "<|reserved_214|>",
      "id": 224,
      "lstrip": false,
      "normalized": false,
      "rstrip": false,
      "single_word": false,
      "special": true
    },
    {
      "content": "<|reserved_215|>",
      "id": 225,
      "lstrip": false,
      "normalized": false,
      "rstrip": false,
      "single_word": false,
      "special": true
    },
    {
      "content": "<|reserved_216|>",
      "id": 226,
      "lstrip": false,
      "normalized": false,
      "rstrip": false,
      "single_word": false,
      "special": true
    },
    {
      "content": "<|reserved_217|>",
      "id": 227,
      "lstrip": false,
      "normalized": false,
      "rstrip": false,
      "single_word": false,
      "special": true
    },
    {
      "content": "<|reserved_218|>",
      "id": 228,
      "lstrip": false,
      "normalized": false,
      "rstrip": false,
      "single_word": false,
      "special": true
    },
    {
      "content": "<|reserved_219|>",
      "id": 229,
      "lstrip": false,
      "normalized": false,
      "rstrip": false,
      "single_word": false,
      "special": true
    },
    {
      "content": "<|reserved_220|>",
      "id": 230,
      "lstrip": false,
      "normalized": false,
      "rstrip": false,
      "single_word": false,
      "special": true
    },
    {
      "content": "<|reserved_221|>",
      "id": 231,
      "lstrip": false,
      "normalized": false,
      "rstrip": false,
      "single_word": false,
      "special": true
    },
    {
      "content": "<|reserved_222|>",
      "id": 232,
      "lstrip": false,
      "normalized": false,
      "rstrip": false,
      "single_word": false,
      "special": true
    },
    {
      "content": "<|reserved_223|>",
      "id": 233,
      "lstrip": false,
      "normalized": false,
      "rstrip": false,
      "single_word": false,
      "special": true
    },
    {
      "content": "<|reserved_224|>",
      "id": 234,
      "lstrip": false,
      "normalized": false,
      "rstrip": false,
      "single_word": false,
      "special": true
    },
    {
      "content": "<|reserved_225|>",
      "id": 235,
      "lstrip": false,
      "normalized": false,
      "rstrip": false,
      "single_word": false,
      "special": true
    },
    {
      "content": "<|reserved_226|>",
      "id": 236,
      "lstrip": false,
      "normalized": false,
      "rstrip": false,
      "single_word": false,
      "special": true
    },
    {
      "content": "<|reserved_227|>",
      "id": 237,
      "lstrip": false,
      "normalized": false,
      "rstrip": false,
      "single_word": false,
      "special": true
    },
    {
      "content": "<|reserved_228|>",
      "id": 238,
      "lstrip": false,
      "normalized": false,
      "rstrip": false,
      "single_word": false,
      "special": true
    },
    {
      "content": "<|reserved_229|>",
      "id": 239,
      "lstrip": false,
      "normalized": false,
      "rstrip": false,
      "single_word": false,
      "special": true
    },
    {
      "content": "<|reserved_230|>",
      "id": 240,
      "lstrip": false,
      "normalized": false,
      "rstrip": false,
      "single_word": false,
      "special": true
    },
    {
      "content": "<|reserved_231|>",
      "id": 241,
      "lstrip": false,
      "normalized": false,
      "rstrip": false,
      "single_word": false,
      "special": true
    },
    {
      "content": "<|reserved_232|>",
      "id": 242,
      "lstrip": false,
      "normalized": false,
      "rstrip": false,
      "single_word": false,
      "special": true
    },
    {
      "content": "<|reserved_233|>",
      "id": 243,
      "lstrip": false,
      "normalized": false,
      "rstrip": false,
      "single_word": false,
      "special": true
    },
    {
      "content": "<|reserved_234|>",
      "id": 244,
      "lstrip": false,
      "normalized": false,
      "rstrip": false,
      "single_word": false,
      "special": true
    },
    {
      "content": "<|reserved_235|>",
      "id": 245,
      "lstrip": false,
      "normalized": false,
      "rstrip": false,
      "single_word": false,
      "special": true
    },
    {
      "content": "<|reserved_236|>",
      "id": 246,
      "lstrip": false,
      "normalized": false,
      "rstrip": false,
      "single_word": false,
      "special": true
    },
    {
      "content": "<|reserved_237|>",
      "id": 247,
      "lstrip": false,
      "normalized": false,
      "rstrip": false,
      "single_word": false,
      "special": true
    },
    {
      "content": "<|reserved_238|>",
      "id": 248,
      "lstrip": false,
      "normalized": false,
      "rstrip": false,
      "single_word": false,
      "special": true
    },
    {
      "content": "<|reserved_239|>",
      "id": 249,
      "lstrip": false,
      "normalized": false,
      "rstrip": false,
      "single_word": false,
      "special": true
    },
    {
      "content": "<|reserved_240|>",
      "id": 250,
      "lstrip": false,
      "normalized": false,
      "rstrip": false,
      "single_word": false,
      "special": true
    },
    {
      "content": "<|reserved_241|>",
      "id": 251,
      "lstrip": false,
      "normalized": false,
      "rstrip": false,
      "single_word": false,
      "special": true
    },
    {
      "content": "<|reserved_242|>",
      "id": 252,
      "lstrip": false,
      "normalized": false,
      "rstrip": false,
      "single_word": false,
      "special": true
    },
    {
      "content": "<|reserved_243|>",
      "id": 253,
      "lstrip": false,
      "normalized": false,
      "rstrip": false,
      "single_word": false,
      "special": true
    },
    {
      "content": "<|reserved_244|>",
      "id": 254,
      "lstrip": false,
      "normalized": false,
      "rstrip": false,
      "single_word": false,
      "special": true
    },
    {
      "content": "<|reserved_245|>",
      "id": 255,
      "lstrip": false,
      "normalized": false,
      "rstrip": false,
      "single_word": false,
      "special": true
    },
    {
      "content": "<|reserved_246|>",
      "id": 256,
      "lstrip": false,
      "normalized": false,
      "rstrip": false,
      "single_word": false,
      "special": true
    },
    {
      "content": "<|reserved_247|>",
      "id": 257,
      "lstrip": false,
      "normalized": false,
      "rstrip": false,
      "single_word": false,
      "special": true
    },
    {
      "content": "<|reserved_248|>",
      "id": 258,
      "lstrip": false,
      "normalized": false,
      "rstrip": false,
      "single_word": false,
      "special": true
    },
    {
      "content": "<|reserved_249|>",
      "id": 259,
      "lstrip": false,
      "normalized": false,
      "rstrip": false,
      "single_word": false,
      "special": true
    },
    {
      "content": "<|reserved_250|>",
      "id": 260,
      "lstrip": false,
      "normalized": false,
      "rstrip": false,
      "single_word": false,
      "special": true
    },
    {
      "content": "<|reserved_251|>",
      "id": 261,
      "lstrip": false,
      "normalized": false,
      "rstrip": false,
      "single_word": false,
      "special": true
    },
    {
      "content": "<|reserved_252|>",
      "id": 262,
      "lstrip": false,
      "normalized": false,
      "rstrip": false,
      "single_word": false,
      "special": true
    },
    {
      "content": "<|reserved_253|>",
      "id": 263,
      "lstrip": false,
      "normalized": false,
      "rstrip": false,
      "single_word": false,
      "special": true
    },
    {
      "content": "<|reserved_254|>",
      "id": 264,
      "lstrip": false,
      "normalized": false,
      "rstrip": false,
      "single_word": false,
      "special": true
    },
    {
      "content": "<|reserved_255|>",
      "id": 265,
      "lstrip": false,
      "normalized": false,
      "rstrip": false,
      "single_word": false,
      "special": true
    },
    {
      "content": "<|reserved_256|>",
      "id": 266,
      "lstrip": false,
      "normalized": false,
      "rstrip": false,
      "single_word": false,
      "special": true
    },
    {
      "content": "<|reserved_257|>",
      "id": 267,
      "lstrip": false,
      "normalized": false,
      "rstrip": false,
      "single_word": false,
      "special": true
    },
    {
      "content": "<|reserved_258|>",
      "id": 268,
      "lstrip": false,
      "normalized": false,
      "rstrip": false,
      "single_word": false,
      "special": true
    },
    {
      "content": "<|reserved_259|>",
      "id": 269,
      "lstrip": false,
      "normalized": false,
      "rstrip": false,
      "single_word": false,
      "special": true
    },
    {
      "content": "<|reserved_260|>",
      "id": 270,
      "lstrip": false,
      "normalized": false,
      "rstrip": false,
      "single_word": false,
      "special": true
    },
    {
      "content": "<|reserved_261|>",
      "id": 271,
      "lstrip": false,
      "normalized": false,
      "rstrip": false,
      "single_word": false,
      "special": true
    },
    {
      "content": "<|reserved_262|>",
      "id": 272,
      "lstrip": false,
      "normalized": false,
      "rstrip": false,
      "single_word": false,
      "special": true
    },
    {
      "content": "<|reserved_263|>",
      "id": 273,
      "lstrip": false,
      "normalized": false,
      "rstrip": false,
      "single_word": false,
      "special": true
    },
    {
      "content": "<|reserved_264|>",
      "id": 274,
      "lstrip": false,
      "normalized": false,
      "rstrip": false,
      "single_word": false,
      "special": true
    },
    {
      "content": "<|reserved_265|>",
      "id": 275,
      "lstrip": false,
      "normalized": false,
      "rstrip": false,
      "single_word": false,
      "special": true
    },
    {
      "content": "<|reserved_266|>",
      "id": 276,
      "lstrip": false,
      "normalized": false,
      "rstrip": false,
      "single_word": false,
      "special": true
    },
    {
      "content": "<|reserved_267|>",
      "id": 277,
      "lstrip": false,
      "normalized": false,
      "rstrip": false,
      "single_word": false,
      "special": true
    },
    {
      "content": "<|reserved_268|>",
      "id": 278,
      "lstrip": false,
      "normalized": false,
      "rstrip": false,
      "single_word": false,
      "special": true
    },
    {
      "content": "<|reserved_269|>",
      "id": 279,
      "lstrip": false,
      "normalized": false,
      "rstrip": false,
      "single_word": false,
      "special": true
    },
    {
      "content": "<|reserved_270|>",
      "id": 280,
      "lstrip": false,
      "normalized": false,
      "rstrip": false,
      "single_word": false,
      "special": true
    },
    {
      "content": "<|reserved_271|>",
      "id": 281,
      "lstrip": false,
      "normalized": false,
      "rstrip": false,
      "single_word": false,
      "special": true
    },
    {
      "content": "<|reserved_272|>",
      "id": 282,
      "lstrip": false,
      "normalized": false,
      "rstrip": false,
      "single_word": false,
      "special": true
    },
    {
      "content": "<|reserved_273|>",
      "id": 283,
      "lstrip": false,
      "normalized": false,
      "rstrip": false,
      "single_word": false,
      "special": true
    },
    {
      "content": "<|reserved_274|>",
      "id": 284,
      "lstrip": false,
      "normalized": false,
      "rstrip": false,
      "single_word": false,
      "special": true
    },
    {
      "content": "<|reserved_275|>",
      "id": 285,
      "lstrip": false,
      "normalized": false,
      "rstrip": false,
      "single_word": false,
      "special": true
    },
    {
      "content": "<|reserved_276|>",
      "id": 286,
      "lstrip": false,
      "normalized": false,
      "rstrip": false,
      "single_word": false,
      "special": true
    },
    {
      "content": "<|reserved_277|>",
      "id": 287,
      "lstrip": false,
      "normalized": false,
      "rstrip": false,
      "single_word": false,
      "special": true
    },
    {
      "content": "<|reserved_278|>",
      "id": 288,
      "lstrip": false,
      "normalized": false,
      "rstrip": false,
      "single_word": false,
      "special": true
    },
    {
      "content": "<|reserved_279|>",
      "id": 289,
      "lstrip": false,
      "normalized": false,
      "rstrip": false,
      "single_word": false,
      "special": true
    },
    {
      "content": "<|reserved_280|>",
      "id": 290,
      "lstrip": false,
      "normalized": false,
      "rstrip": false,
      "single_word": false,
      "special": true
    },
    {
      "content": "<|reserved_281|>",
      "id": 291,
      "lstrip": false,
      "normalized": false,
      "rstrip": false,
      "single_word": false,
      "special": true
    },
    {
      "content": "<|reserved_282|>",
      "id": 292,
      "lstrip": false,
      "normalized": false,
      "rstrip": false,
      "single_word": false,
      "special": true
    },
    {
      "content": "<|reserved_283|>",
      "id": 293,
      "lstrip": false,
      "normalized": false,
      "rstrip": false,
      "single_word": false,
      "special": true
    },
    {
      "content": "<|reserved_284|>",
      "id": 294,
      "lstrip": false,
      "normalized": false,
      "rstrip": false,
      "single_word": false,
      "special": true
    },
    {
      "content": "<|reserved_285|>",
      "id": 295,
      "lstrip": false,
      "normalized": false,
      "rstrip": false,
      "single_word": false,
      "special": true
    },
    {
      "content": "<|reserved_286|>",
      "id": 296,
      "lstrip": false,
      "normalized": false,
      "rstrip": false,
      "single_word": false,
      "special": true
    },
    {
      "content": "<|reserved_287|>",
      "id": 297,
      "lstrip": false,
      "normalized": false,
      "rstrip": false,
      "single_word": false,
      "special": true
    },
    {
      "content": "<|reserved_288|>",
      "id": 298,
      "lstrip": false,
      "normalized": false,
      "rstrip": false,
      "single_word": false,
      "special": true
    },
    {
      "content": "<|reserved_289|>",
      "id": 299,
      "lstrip": false,
      "normalized": false,
      "rstrip": false,
      "single_word": false,
      "special": true
    },
    {
      "content": "<|reserved_290|>",
      "id": 300,
      "lstrip": false,
      "normalized": false,
      "rstrip": false,
      "single_word": false,
      "special": true
    },
    {
      "content": "<|reserved_291|>",
      "id": 301,
      "lstrip": false,
      "normalized": false,
      "rstrip": false,
      "single_word": false,
      "special": true
    },
    {
      "content": "<|reserved_292|>",
      "id": 302,
      "lstrip": false,
      "normalized": false,
      "rstrip": false,
      "single_word": false,
      "special": true
    },
    {
      "content": "<|reserved_293|>",
      "id": 303,
      "lstrip": false,
      "normalized": false,
      "rstrip": false,
      "single_word": false,
      "special": true
    },
    {
      "content": "<|reserved_294|>",
      "id": 304,
      "lstrip": false,
      "normalized": false,
      "rstrip": false,
      "single_word": false,
      "special": true
    },
    {
      "content": "<|reserved_295|>",
      "id": 305,
      "lstrip": false,
      "normalized": false,
      "rstrip": false,
      "single_word": false,
      "special": true
    },
    {
      "content": "<|reserved_296|>",
      "id": 306,
      "lstrip": false,
      "normalized": false,
      "rstrip": false,
      "single_word": false,
      "special": true
    },
    {
      "content": "<|reserved_297|>",
      "id": 307,
      "lstrip": false,
      "normalized": false,
      "rstrip": false,
      "single_word": false,
      "special": true
    },
    {
      "content": "<|reserved_298|>",
      "id": 308,
      "lstrip": false,
      "normalized": false,
      "rstrip": false,
      "single_word": false,
      "special": true
    },
    {
      "content": "<|reserved_299|>",
      "id": 309,
      "lstrip": false,
      "normalized": false,
      "rstrip": false,
      "single_word": false,
      "special": true
    },
    {
      "content": "<|reserved_300|>",
      "id": 310,
      "lstrip": false,
      "normalized": false,
      "rstrip": false,
      "single_word": false,
      "special": true
    },
    {
      "content": "<|reserved_301|>",
      "id": 311,
      "lstrip": false,
      "normalized": false,
      "rstrip": false,
      "single_word": false,
      "special": true
    },
    {
      "content": "<|reserved_302|>",
      "id": 312,
      "lstrip": false,
      "normalized": false,
      "rstrip": false,
      "single_word": false,
      "special": true
    },
    {
      "content": "<|reserved_303|>",
      "id": 313,
      "lstrip": false,
      "normalized": false,
      "rstrip": false,
      "single_word": false,
      "special": true
    },
    {
      "content": "<|reserved_304|>",
      "id": 314,
      "lstrip": false,
      "normalized": false,
      "rstrip": false,
      "single_word": false,
      "special": true
    },
    {
      "content": "<|reserved_305|>",
      "id": 315,
      "lstrip": false,
      "normalized": false,
      "rstrip": false,
      "single_word": false,
      "special": true
    },
    {
      "content": "<|reserved_306|>",
      "id": 316,
      "lstrip": false,
      "normalized": false,
      "rstrip": false,
      "single_word": false,
      "special": true
    },
    {
      "content": "<|reserved_307|>",
      "id": 317,
      "lstrip": false,
      "normalized": false,
      "rstrip": false,
      "single_word": false,
      "special": true
    },
    {
      "content": "<|reserved_308|>",
      "id": 318,
      "lstrip": false,
      "normalized": false,
      "rstrip": false,
      "single_word": false,
      "special": true
    },
    {
      "content": "<|reserved_309|>",
      "id": 319,
      "lstrip": false,
      "normalized": false,
      "rstrip": false,
      "single_word": false,
      "special": true
    },
    {
      "content": "<|reserved_310|>",
      "id": 320,
      "lstrip": false,
      "normalized": false,
      "rstrip": false,
      "single_word": false,
      "special": true
    },
    {
      "content": "<|reserved_311|>",
      "id": 321,
      "lstrip": false,
      "normalized": false,
      "rstrip": false,
      "single_word": false,
      "special": true
    },
    {
      "content": "<|reserved_312|>",
      "id": 322,
      "lstrip": false,
      "normalized": false,
      "rstrip": false,
      "single_word": false,
      "special": true
    },
    {
      "content": "<|reserved_313|>",
      "id": 323,
      "lstrip": false,
      "normalized": false,
      "rstrip": false,
      "single_word": false,
      "special": true
    },
    {
      "content": "<|reserved_314|>",
      "id": 324,
      "lstrip": false,
      "normalized": false,
      "rstrip": false,
      "single_word": false,
      "special": true
    },
    {
      "content": "<|reserved_315|>",
      "id": 325,
      "lstrip": false,
      "normalized": false,
      "rstrip": false,
      "single_word": false,
      "special": true
    },
    {
      "content": "<|reserved_316|>",
      "id": 326,
      "lstrip": false,
      "normalized": false,
      "rstrip": false,
      "single_word": false,
      "special": true
    },
    {
      "content": "<|reserved_317|>",
      "id": 327,
      "lstrip": false,
      "normalized": false,
      "rstrip": false,
      "single_word": false,
      "special": true
    },
    {
      "content": "<|reserved_318|>",
      "id": 328,
      "lstrip": false,
      "normalized": false,
      "rstrip": false,
      "single_word": false,
      "special": true
    },
    {
      "content": "<|reserved_319|>",
      "id": 329,
      "lstrip": false,
      "normalized": false,
      "rstrip": false,
      "single_word": false,
      "special": true
    },
    {
      "content": "<|reserved_320|>",
      "id": 330,
      "lstrip": false,
      "normalized": false,
      "rstrip": false,
      "single_word": false,
      "special": true
    },
    {
      "content": "<|reserved_321|>",
      "id": 331,
      "lstrip": false,
      "normalized": false,
      "rstrip": false,
      "single_word": false,
      "special": true
    },
    {
      "content": "<|reserved_322|>",
      "id": 332,
      "lstrip": false,
      "normalized": false,
      "rstrip": false,
      "single_word": false,
      "special": true
    },
    {
      "content": "<|reserved_323|>",
      "id": 333,
      "lstrip": false,
      "normalized": false,
      "rstrip": false,
      "single_word": false,
      "special": true
    },
    {
      "content": "<|reserved_324|>",
      "id": 334,
      "lstrip": false,
      "normalized": false,
      "rstrip": false,
      "single_word": false,
      "special": true
    },
    {
      "content": "<|reserved_325|>",
      "id": 335,
      "lstrip": false,
      "normalized": false,
      "rstrip": false,
      "single_word": false,
      "special": true
    },
    {
      "content": "<|reserved_326|>",
      "id": 336,
      "lstrip": false,
      "normalized": false,
      "rstrip": false,
      "single_word": false,
      "special": true
    },
    {
      "content": "<|reserved_327|>",
      "id": 337,
      "lstrip": false,
      "normalized": false,
      "rstrip": false,
      "single_word": false,
      "special": true
    },
    {
      "content": "<|reserved_328|>",
      "id": 338,
      "lstrip": false,
      "normalized": false,
      "rstrip": false,
      "single_word": false,
      "special": true
    },
    {
      "content": "<|reserved_329|>",
      "id": 339,
      "lstrip": false,
      "normalized": false,
      "rstrip": false,
      "single_word": false,
      "special": true
    },
    {
      "content": "<|reserved_330|>",
      "id": 340,
      "lstrip": false,
      "normalized": false,
      "rstrip": false,
      "single_word": false,
      "special": true
    },
    {
      "content": "<|reserved_331|>",
      "id": 341,
      "lstrip": false,
      "normalized": false,
      "rstrip": false,
      "single_word": false,
      "special": true
    },
    {
      "content": "<|reserved_332|>",
      "id": 342,
      "lstrip": false,
      "normalized": false,
      "rstrip": false,
      "single_word": false,
      "special": true
    },
    {
      "content": "<|reserved_333|>",
      "id": 343,
      "lstrip": false,
      "normalized": false,
      "rstrip": false,
      "single_word": false,
      "special": true
    },
    {
      "content": "<|reserved_334|>",
      "id": 344,
      "lstrip": false,
      "normalized": false,
      "rstrip": false,
      "single_word": false,
      "special": true
    },
    {
      "content": "<|reserved_335|>",
      "id": 345,
      "lstrip": false,
      "normalized": false,
      "rstrip": false,
      "single_word": false,
      "special": true
    },
    {
      "content": "<|reserved_336|>",
      "id": 346,
      "lstrip": false,
      "normalized": false,
      "rstrip": false,
      "single_word": false,
      "special": true
    },
    {
      "content": "<|reserved_337|>",
      "id": 347,
      "lstrip": false,
      "normalized": false,
      "rstrip": false,
      "single_word": false,
      "special": true
    },
    {
      "content": "<|reserved_338|>",
      "id": 348,
      "lstrip": false,
      "normalized": false,
      "rstrip": false,
      "single_word": false,
      "special": true
    },
    {
      "content": "<|reserved_339|>",
      "id": 349,
      "lstrip": false,
      "normalized": false,
      "rstrip": false,
      "single_word": false,
      "special": true
    },
    {
      "content": "<|reserved_340|>",
      "id": 350,
      "lstrip": false,
      "normalized": false,
      "rstrip": false,
      "single_word": false,
      "special": true
    },
    {
      "content": "<|reserved_341|>",
      "id": 351,
      "lstrip": false,
      "normalized": false,
      "rstrip": false,
      "single_word": false,
      "special": true
    },
    {
      "content": "<|reserved_342|>",
      "id": 352,
      "lstrip": false,
      "normalized": false,
      "rstrip": false,
      "single_word": false,
      "special": true
    },
    {
      "content": "<|reserved_343|>",
      "id": 353,
      "lstrip": false,
      "normalized": false,
      "rstrip": false,
      "single_word": false,
      "special": true
    },
    {
      "content": "<|reserved_344|>",
      "id": 354,
      "lstrip": false,
      "normalized": false,
      "rstrip": false,
      "single_word": false,
      "special": true
    },
    {
      "content": "<|reserved_345|>",
      "id": 355,
      "lstrip": false,
      "normalized": false,
      "rstrip": false,
      "single_word": false,
      "special": true
    },
    {
      "content": "<|reserved_346|>",
      "id": 356,
      "lstrip": false,
      "normalized": false,
      "rstrip": false,
      "single_word": false,
      "special": true
    },
    {
      "content": "<|reserved_347|>",
      "id": 357,
      "lstrip": false,
      "normalized": false,
      "rstrip": false,
      "single_word": false,
      "special": true
    },
    {
      "content": "<|reserved_348|>",
      "id": 358,
      "lstrip": false,
      "normalized": false,
      "rstrip": false,
      "single_word": false,
      "special": true
    },
    {
      "content": "<|reserved_349|>",
      "id": 359,
      "lstrip": false,
      "normalized": false,
      "rstrip": false,
      "single_word": false,
      "special": true
    },
    {
      "content": "<|reserved_350|>",
      "id": 360,
      "lstrip": false,
      "normalized": false,
      "rstrip": false,
      "single_word": false,
      "special": true
    },
    {
      "content": "<|reserved_351|>",
      "id": 361,
      "lstrip": false,
      "normalized": false,
      "rstrip": false,
      "single_word": false,
      "special": true
    },
    {
      "content": "<|reserved_352|>",
      "id": 362,
      "lstrip": false,
      "normalized": false,
      "rstrip": false,
      "single_word": false,
      "special": true
    },
    {
      "content": "<|reserved_353|>",
      "id": 363,
      "lstrip": false,
      "normalized": false,
      "rstrip": false,
      "single_word": false,
      "special": true
    },
    {
      "content": "<|reserved_354|>",
      "id": 364,
      "lstrip": false,
      "normalized": false,
      "rstrip": false,
      "single_word": false,
      "special": true
    },
    {
      "content": "<|reserved_355|>",
      "id": 365,
      "lstrip": false,
      "normalized": false,
      "rstrip": false,
      "single_word": false,
      "special": true
    },
    {
      "content": "<|reserved_356|>",
      "id": 366,
      "lstrip": false,
      "normalized": false,
      "rstrip": false,
      "single_word": false,
      "special": true
    },
    {
      "content": "<|reserved_357|>",
      "id": 367,
      "lstrip": false,
      "normalized": false,
      "rstrip": false,
      "single_word": false,
      "special": true
    },
    {
      "content": "<|reserved_358|>",
      "id": 368,
      "lstrip": false,
      "normalized": false,
      "rstrip": false,
      "single_word": false,
      "special": true
    },
    {
      "content": "<|reserved_359|>",
      "id": 369,
      "lstrip": false,
      "normalized": false,
      "rstrip": false,
      "single_word": false,
      "special": true
    },
    {
      "content": "<|reserved_360|>",
      "id": 370,
      "lstrip": false,
      "normalized": false,
      "rstrip": false,
      "single_word": false,
      "special": true
    },
    {
      "content": "<|reserved_361|>",
      "id": 371,
      "lstrip": false,
      "normalized": false,
      "rstrip": false,
      "single_word": false,
      "special": true
    },
    {
      "content": "<|reserved_362|>",
      "id": 372,
      "lstrip": false,
      "normalized": false,
      "rstrip": false,
      "single_word": false,
      "special": true
    },
    {
      "content": "<|reserved_363|>",
      "id": 373,
      "lstrip": false,
      "normalized": false,
      "rstrip": false,
      "single_word": false,
      "special": true
    },
    {
      "content": "<|reserved_364|>",
      "id": 374,
      "lstrip": false,
      "normalized": false,
      "rstrip": false,
      "single_word": false,
      "special": true
    },
    {
      "content": "<|reserved_365|>",
      "id": 375,
      "lstrip": false,
      "normalized": false,
      "rstrip": false,
      "single_word": false,
      "special": true
    },
    {
      "content": "<|reserved_366|>",
      "id": 376,
      "lstrip": false,
      "normalized": false,
      "rstrip": false,
      "single_word": false,
      "special": true
    },
    {
      "content": "<|reserved_367|>",
      "id": 377,
      "lstrip": false,
      "normalized": false,
      "rstrip": false,
      "single_word": false,
      "special": true
    },
    {
      "content": "<|reserved_368|>",
      "id": 378,
      "lstrip": false,
      "normalized": false,
      "rstrip": false,
      "single_word": false,
      "special": true
    },
    {
      "content": "<|reserved_369|>",
      "id": 379,
      "lstrip": false,
      "normalized": false,
      "rstrip": false,
      "single_word": false,
      "special": true
    },
    {
      "content": "<|reserved_370|>",
      "id": 380,
      "lstrip": false,
      "normalized": false,
      "rstrip": false,
      "single_word": false,
      "special": true
    },
    {
      "content": "<|reserved_371|>",
      "id": 381,
      "lstrip": false,
      "normalized": false,
      "rstrip": false,
      "single_word": false,
      "special": true
    },
    {
      "content": "<|reserved_372|>",
      "id": 382,
      "lstrip": false,
      "normalized": false,
      "rstrip": false,
      "single_word": false,
      "special": true
    },
    {
      "content": "<|reserved_373|>",
      "id": 383,
      "lstrip": false,
      "normalized": false,
      "rstrip": false,
      "single_word": false,
      "special": true
    },
    {
      "content": "<|reserved_374|>",
      "id": 384,
      "lstrip": false,
      "normalized": false,
      "rstrip": false,
      "single_word": false,
      "special": true
    },
    {
      "content": "<|reserved_375|>",
      "id": 385,
      "lstrip": false,
      "normalized": false,
      "rstrip": false,
      "single_word": false,
      "special": true
    },
    {
      "content": "<|reserved_376|>",
      "id": 386,
      "lstrip": false,
      "normalized": false,
      "rstrip": false,
      "single_word": false,
      "special": true
    },
    {
      "content": "<|reserved_377|>",
      "id": 387,
      "lstrip": false,
      "normalized": false,
      "rstrip": false,
      "single_word": false,
      "special": true
    },
    {
      "content": "<|reserved_378|>",
      "id": 388,
      "lstrip": false,
      "normalized": false,
      "rstrip": false,
      "single_word": false,
      "special": true
    },
    {
      "content": "<|reserved_379|>",
      "id": 389,
      "lstrip": false,
      "normalized": false,
      "rstrip": false,
      "single_word": false,
      "special": true
    },
    {
      "content": "<|reserved_380|>",
      "id": 390,
      "lstrip": false,
      "normalized": false,
      "rstrip": false,
      "single_word": false,
      "special": true
    },
    {
      "content": "<|reserved_381|>",
      "id": 391,
      "lstrip": false,
      "normalized": false,
      "rstrip": false,
      "single_word": false,
      "special": true
    },
    {
      "content": "<|reserved_382|>",
      "id": 392,
      "lstrip": false,
      "normalized": false,
      "rstrip": false,
      "single_word": false,
      "special": true
    },
    {
      "content": "<|reserved_383|>",
      "id": 393,
      "lstrip": false,
      "normalized": false,
      "rstrip": false,
      "single_word": false,
      "special": true
    },
    {
      "content": "<|reserved_384|>",
      "id": 394,
      "lstrip": false,
      "normalized": false,
      "rstrip": false,
      "single_word": false,
      "special": true
    },
    {
      "content": "<|reserved_385|>",
      "id": 395,
      "lstrip": false,
      "normalized": false,
      "rstrip": false,
      "single_word": false,
      "special": true
    },
    {
      "content": "<image>",
      "id": 396,
      "lstrip": false,
      "normalized": false,
      "rstrip": false,
      "single_word": false,
      "special": true
    },
    {
      "content": "<|img_row_1_col_1|>",
      "id": 397,
      "lstrip": false,
      "normalized": false,
      "rstrip": false,
      "single_word": false,
      "special": true
    },
    {
      "content": "<|img_row_1_col_2|>",
      "id": 398,
      "lstrip": false,
      "normalized": false,
      "rstrip": false,
      "single_word": false,
      "special": true
    },
    {
      "content": "<|img_row_1_col_3|>",
      "id": 399,
      "lstrip": false,
      "normalized": false,
      "rstrip": false,
      "single_word": false,
      "special": true
    },
    {
      "content": "<|img_row_1_col_4|>",
      "id": 400,
      "lstrip": false,
      "normalized": false,
      "rstrip": false,
      "single_word": false,
      "special": true
    },
    {
      "content": "<|img_row_1_col_5|>",
      "id": 401,
      "lstrip": false,
      "normalized": false,
      "rstrip": false,
      "single_word": false,
      "special": true
    },
    {
      "content": "<|img_row_1_col_6|>",
      "id": 402,
      "lstrip": false,
      "normalized": false,
      "rstrip": false,
      "single_word": false,
      "special": true
    },
    {
      "content": "<|img_row_1_col_7|>",
      "id": 403,
      "lstrip": false,
      "normalized": false,
      "rstrip": false,
      "single_word": false,
      "special": true
    },
    {
      "content": "<|img_row_1_col_8|>",
      "id": 404,
      "lstrip": false,
      "normalized": false,
      "rstrip": false,
      "single_word": false,
      "special": true
    },
    {
      "content": "<|img_row_1_col_9|>",
      "id": 405,
      "lstrip": false,
      "normalized": false,
      "rstrip": false,
      "single_word": false,
      "special": true
    },
    {
      "content": "<|img_row_1_col_10|>",
      "id": 406,
      "lstrip": false,
      "normalized": false,
      "rstrip": false,
      "single_word": false,
      "special": true
    },
    {
      "content": "<|img_row_2_col_1|>",
      "id": 407,
      "lstrip": false,
      "normalized": false,
      "rstrip": false,
      "single_word": false,
      "special": true
    },
    {
      "content": "<|img_row_2_col_2|>",
      "id": 408,
      "lstrip": false,
      "normalized": false,
      "rstrip": false,
      "single_word": false,
      "special": true
    },
    {
      "content": "<|img_row_2_col_3|>",
      "id": 409,
      "lstrip": false,
      "normalized": false,
      "rstrip": false,
      "single_word": false,
      "special": true
    },
    {
      "content": "<|img_row_2_col_4|>",
      "id": 410,
      "lstrip": false,
      "normalized": false,
      "rstrip": false,
      "single_word": false,
      "special": true
    },
    {
      "content": "<|img_row_2_col_5|>",
      "id": 411,
      "lstrip": false,
      "normalized": false,
      "rstrip": false,
      "single_word": false,
      "special": true
    },
    {
      "content": "<|img_row_2_col_6|>",
      "id": 412,
      "lstrip": false,
      "normalized": false,
      "rstrip": false,
      "single_word": false,
      "special": true
    },
    {
      "content": "<|img_row_2_col_7|>",
      "id": 413,
      "lstrip": false,
      "normalized": false,
      "rstrip": false,
      "single_word": false,
      "special": true
    },
    {
      "content": "<|img_row_2_col_8|>",
      "id": 414,
      "lstrip": false,
      "normalized": false,
      "rstrip": false,
      "single_word": false,
      "special": true
    },
    {
      "content": "<|img_row_2_col_9|>",
      "id": 415,
      "lstrip": false,
      "normalized": false,
      "rstrip": false,
      "single_word": false,
      "special": true
    },
    {
      "content": "<|img_row_2_col_10|>",
      "id": 416,
      "lstrip": false,
      "normalized": false,
      "rstrip": false,
      "single_word": false,
      "special": true
    },
    {
      "content": "<|img_row_3_col_1|>",
      "id": 417,
      "lstrip": false,
      "normalized": false,
      "rstrip": false,
      "single_word": false,
      "special": true
    },
    {
      "content": "<|img_row_3_col_2|>",
      "id": 418,
      "lstrip": false,
      "normalized": false,
      "rstrip": false,
      "single_word": false,
      "special": true
    },
    {
      "content": "<|img_row_3_col_3|>",
      "id": 419,
      "lstrip": false,
      "normalized": false,
      "rstrip": false,
      "single_word": false,
      "special": true
    },
    {
      "content": "<|img_row_3_col_4|>",
      "id": 420,
      "lstrip": false,
      "normalized": false,
      "rstrip": false,
      "single_word": false,
      "special": true
    },
    {
      "content": "<|img_row_3_col_5|>",
      "id": 421,
      "lstrip": false,
      "normalized": false,
      "rstrip": false,
      "single_word": false,
      "special": true
    },
    {
      "content": "<|img_row_3_col_6|>",
      "id": 422,
      "lstrip": false,
      "normalized": false,
      "rstrip": false,
      "single_word": false,
      "special": true
    },
    {
      "content": "<|img_row_3_col_7|>",
      "id": 423,
      "lstrip": false,
      "normalized": false,
      "rstrip": false,
      "single_word": false,
      "special": true
    },
    {
      "content": "<|img_row_3_col_8|>",
      "id": 424,
      "lstrip": false,
      "normalized": false,
      "rstrip": false,
      "single_word": false,
      "special": true
    },
    {
      "content": "<|img_row_3_col_9|>",
      "id": 425,
      "lstrip": false,
      "normalized": false,
      "rstrip": false,
      "single_word": false,
      "special": true
    },
    {
      "content": "<|img_row_3_col_10|>",
      "id": 426,
      "lstrip": false,
      "normalized": false,
      "rstrip": false,
      "single_word": false,
      "special": true
    },
    {
      "content": "<|img_row_4_col_1|>",
      "id": 427,
      "lstrip": false,
      "normalized": false,
      "rstrip": false,
      "single_word": false,
      "special": true
    },
    {
      "content": "<|img_row_4_col_2|>",
      "id": 428,
      "lstrip": false,
      "normalized": false,
      "rstrip": false,
      "single_word": false,
      "special": true
    },
    {
      "content": "<|img_row_4_col_3|>",
      "id": 429,
      "lstrip": false,
      "normalized": false,
      "rstrip": false,
      "single_word": false,
      "special": true
    },
    {
      "content": "<|img_row_4_col_4|>",
      "id": 430,
      "lstrip": false,
      "normalized": false,
      "rstrip": false,
      "single_word": false,
      "special": true
    },
    {
      "content": "<|img_row_4_col_5|>",
      "id": 431,
      "lstrip": false,
      "normalized": false,
      "rstrip": false,
      "single_word": false,
      "special": true
    },
    {
      "content": "<|img_row_4_col_6|>",
      "id": 432,
      "lstrip": false,
      "normalized": false,
      "rstrip": false,
      "single_word": false,
      "special": true
    },
    {
      "content": "<|img_row_4_col_7|>",
      "id": 433,
      "lstrip": false,
      "normalized": false,
      "rstrip": false,
      "single_word": false,
      "special": true
    },
    {
      "content": "<|img_row_4_col_8|>",
      "id": 434,
      "lstrip": false,
      "normalized": false,
      "rstrip": false,
      "single_word": false,
      "special": true
    },
    {
      "content": "<|img_row_4_col_9|>",
      "id": 435,
      "lstrip": false,
      "normalized": false,
      "rstrip": false,
      "single_word": false,
      "special": true
    },
    {
      "content": "<|img_row_4_col_10|>",
      "id": 436,
      "lstrip": false,
      "normalized": false,
      "rstrip": false,
      "single_word": false,
      "special": true
    },
    {
      "content": "<|img_row_5_col_1|>",
      "id": 437,
      "lstrip": false,
      "normalized": false,
      "rstrip": false,
      "single_word": false,
      "special": true
    },
    {
      "content": "<|img_row_5_col_2|>",
      "id": 438,
      "lstrip": false,
      "normalized": false,
      "rstrip": false,
      "single_word": false,
      "special": true
    },
    {
      "content": "<|img_row_5_col_3|>",
      "id": 439,
      "lstrip": false,
      "normalized": false,
      "rstrip": false,
      "single_word": false,
      "special": true
    },
    {
      "content": "<|img_row_5_col_4|>",
      "id": 440,
      "lstrip": false,
      "normalized": false,
      "rstrip": false,
      "single_word": false,
      "special": true
    },
    {
      "content": "<|img_row_5_col_5|>",
      "id": 441,
      "lstrip": false,
      "normalized": false,
      "rstrip": false,
      "single_word": false,
      "special": true
    },
    {
      "content": "<|img_row_5_col_6|>",
      "id": 442,
      "lstrip": false,
      "normalized": false,
      "rstrip": false,
      "single_word": false,
      "special": true
    },
    {
      "content": "<|img_row_5_col_7|>",
      "id": 443,
      "lstrip": false,
      "normalized": false,
      "rstrip": false,
      "single_word": false,
      "special": true
    },
    {
      "content": "<|img_row_5_col_8|>",
      "id": 444,
      "lstrip": false,
      "normalized": false,
      "rstrip": false,
      "single_word": false,
      "special": true
    },
    {
      "content": "<|img_row_5_col_9|>",
      "id": 445,
      "lstrip": false,
      "normalized": false,
      "rstrip": false,
      "single_word": false,
      "special": true
    },
    {
      "content": "<|img_row_5_col_10|>",
      "id": 446,
      "lstrip": false,
      "normalized": false,
      "rstrip": false,
      "single_word": false,
      "special": true
    },
    {
      "content": "<|img_row_6_col_1|>",
      "id": 447,
      "lstrip": false,
      "normalized": false,
      "rstrip": false,
      "single_word": false,
      "special": true
    },
    {
      "content": "<|img_row_6_col_2|>",
      "id": 448,
      "lstrip": false,
      "normalized": false,
      "rstrip": false,
      "single_word": false,
      "special": true
    },
    {
      "content": "<|img_row_6_col_3|>",
      "id": 449,
      "lstrip": false,
      "normalized": false,
      "rstrip": false,
      "single_word": false,
      "special": true
    },
    {
      "content": "<|img_row_6_col_4|>",
      "id": 450,
      "lstrip": false,
      "normalized": false,
      "rstrip": false,
      "single_word": false,
      "special": true
    },
    {
      "content": "<|img_row_6_col_5|>",
      "id": 451,
      "lstrip": false,
      "normalized": false,
      "rstrip": false,
      "single_word": false,
      "special": true
    },
    {
      "content": "<|img_row_6_col_6|>",
      "id": 452,
      "lstrip": false,
      "normalized": false,
      "rstrip": false,
      "single_word": false,
      "special": true
    },
    {
      "content": "<|img_row_6_col_7|>",
      "id": 453,
      "lstrip": false,
      "normalized": false,
      "rstrip": false,
      "single_word": false,
      "special": true
    },
    {
      "content": "<|img_row_6_col_8|>",
      "id": 454,
      "lstrip": false,
      "normalized": false,
      "rstrip": false,
      "single_word": false,
      "special": true
    },
    {
      "content": "<|img_row_6_col_9|>",
      "id": 455,
      "lstrip": false,
      "normalized": false,
      "rstrip": false,
      "single_word": false,
      "special": true
    },
    {
      "content": "<|img_row_6_col_10|>",
      "id": 456,
      "lstrip": false,
      "normalized": false,
      "rstrip": false,
      "single_word": false,
      "special": true
    },
    {
      "content": "<|img_row_7_col_1|>",
      "id": 457,
      "lstrip": false,
      "normalized": false,
      "rstrip": false,
      "single_word": false,
      "special": true
    },
    {
      "content": "<|img_row_7_col_2|>",
      "id": 458,
      "lstrip": false,
      "normalized": false,
      "rstrip": false,
      "single_word": false,
      "special": true
    },
    {
      "content": "<|img_row_7_col_3|>",
      "id": 459,
      "lstrip": false,
      "normalized": false,
      "rstrip": false,
      "single_word": false,
      "special": true
    },
    {
      "content": "<|img_row_7_col_4|>",
      "id": 460,
      "lstrip": false,
      "normalized": false,
      "rstrip": false,
      "single_word": false,
      "special": true
    },
    {
      "content": "<|img_row_7_col_5|>",
      "id": 461,
      "lstrip": false,
      "normalized": false,
      "rstrip": false,
      "single_word": false,
      "special": true
    },
    {
      "content": "<|img_row_7_col_6|>",
      "id": 462,
      "lstrip": false,
      "normalized": false,
      "rstrip": false,
      "single_word": false,
      "special": true
    },
    {
      "content": "<|img_row_7_col_7|>",
      "id": 463,
      "lstrip": false,
      "normalized": false,
      "rstrip": false,
      "single_word": false,
      "special": true
    },
    {
      "content": "<|img_row_7_col_8|>",
      "id": 464,
      "lstrip": false,
      "normalized": false,
      "rstrip": false,
      "single_word": false,
      "special": true
    },
    {
      "content": "<|img_row_7_col_9|>",
      "id": 465,
      "lstrip": false,
      "normalized": false,
      "rstrip": false,
      "single_word": false,
      "special": true
    },
    {
      "content": "<|img_row_7_col_10|>",
      "id": 466,
      "lstrip": false,
      "normalized": false,
      "rstrip": false,
      "single_word": false,
      "special": true
    },
    {
      "content": "<|img_row_8_col_1|>",
      "id": 467,
      "lstrip": false,
      "normalized": false,
      "rstrip": false,
      "single_word": false,
      "special": true
    },
    {
      "content": "<|img_row_8_col_2|>",
      "id": 468,
      "lstrip": false,
      "normalized": false,
      "rstrip": false,
      "single_word": false,
      "special": true
    },
    {
      "content": "<|img_row_8_col_3|>",
      "id": 469,
      "lstrip": false,
      "normalized": false,
      "rstrip": false,
      "single_word": false,
      "special": true
    },
    {
      "content": "<|img_row_8_col_4|>",
      "id": 470,
      "lstrip": false,
      "normalized": false,
      "rstrip": false,
      "single_word": false,
      "special": true
    },
    {
      "content": "<|img_row_8_col_5|>",
      "id": 471,
      "lstrip": false,
      "normalized": false,
      "rstrip": false,
      "single_word": false,
      "special": true
    },
    {
      "content": "<|img_row_8_col_6|>",
      "id": 472,
      "lstrip": false,
      "normalized": false,
      "rstrip": false,
      "single_word": false,
      "special": true
    },
    {
      "content": "<|img_row_8_col_7|>",
      "id": 473,
      "lstrip": false,
      "normalized": false,
      "rstrip": false,
      "single_word": false,
      "special": true
    },
    {
      "content": "<|img_row_8_col_8|>",
      "id": 474,
      "lstrip": false,
      "normalized": false,
      "rstrip": false,
      "single_word": false,
      "special": true
    },
    {
      "content": "<|img_row_8_col_9|>",
      "id": 475,
      "lstrip": false,
      "normalized": false,
      "rstrip": false,
      "single_word": false,
      "special": true
    },
    {
      "content": "<|img_row_8_col_10|>",
      "id": 476,
      "lstrip": false,
      "normalized": false,
      "rstrip": false,
      "single_word": false,
      "special": true
    },
    {
      "content": "<|img_row_9_col_1|>",
      "id": 477,
      "lstrip": false,
      "normalized": false,
      "rstrip": false,
      "single_word": false,
      "special": true
    },
    {
      "content": "<|img_row_9_col_2|>",
      "id": 478,
      "lstrip": false,
      "normalized": false,
      "rstrip": false,
      "single_word": false,
      "special": true
    },
    {
      "content": "<|img_row_9_col_3|>",
      "id": 479,
      "lstrip": false,
      "normalized": false,
      "rstrip": false,
      "single_word": false,
      "special": true
    },
    {
      "content": "<|img_row_9_col_4|>",
      "id": 480,
      "lstrip": false,
      "normalized": false,
      "rstrip": false,
      "single_word": false,
      "special": true
    },
    {
      "content": "<|img_row_9_col_5|>",
      "id": 481,
      "lstrip": false,
      "normalized": false,
      "rstrip": false,
      "single_word": false,
      "special": true
    },
    {
      "content": "<|img_row_9_col_6|>",
      "id": 482,
      "lstrip": false,
      "normalized": false,
      "rstrip": false,
      "single_word": false,
      "special": true
    },
    {
      "content": "<|img_row_9_col_7|>",
      "id": 483,
      "lstrip": false,
      "normalized": false,
      "rstrip": false,
      "single_word": false,
      "special": true
    },
    {
      "content": "<|img_row_9_col_8|>",
      "id": 484,
      "lstrip": false,
      "normalized": false,
      "rstrip": false,
      "single_word": false,
      "special": true
    },
    {
      "content": "<|img_row_9_col_9|>",
      "id": 485,
      "lstrip": false,
      "normalized": false,
      "rstrip": false,
      "single_word": false,
      "special": true
    },
    {
      "content": "<|img_row_9_col_10|>",
      "id": 486,
      "lstrip": false,
      "normalized": false,
      "rstrip": false,
      "single_word": false,
      "special": true
    },
    {
      "content": "<|img_row_10_col_1|>",
      "id": 487,
      "lstrip": false,
      "normalized": false,
      "rstrip": false,
      "single_word": false,
      "special": true
    },
    {
      "content": "<|img_row_10_col_2|>",
      "id": 488,
      "lstrip": false,
      "normalized": false,
      "rstrip": false,
      "single_word": false,
      "special": true
    },
    {
      "content": "<|img_row_10_col_3|>",
      "id": 489,
      "lstrip": false,
      "normalized": false,
      "rstrip": false,
      "single_word": false,
      "special": true
    },
    {
      "content": "<|img_row_10_col_4|>",
      "id": 490,
      "lstrip": false,
      "normalized": false,
      "rstrip": false,
      "single_word": false,
      "special": true
    },
    {
      "content": "<|img_row_10_col_5|>",
      "id": 491,
      "lstrip": false,
      "normalized": false,
      "rstrip": false,
      "single_word": false,
      "special": true
    },
    {
      "content": "<|img_row_10_col_6|>",
      "id": 492,
      "lstrip": false,
      "normalized": false,
      "rstrip": false,
      "single_word": false,
      "special": true
    },
    {
      "content": "<|img_row_10_col_7|>",
      "id": 493,
      "lstrip": false,
      "normalized": false,
      "rstrip": false,
      "single_word": false,
      "special": true
    },
    {
      "content": "<|img_row_10_col_8|>",
      "id": 494,
      "lstrip": false,
      "normalized": false,
      "rstrip": false,
      "single_word": false,
      "special": true
    },
    {
      "content": "<|img_row_10_col_9|>",
      "id": 495,
      "lstrip": false,
      "normalized": false,
      "rstrip": false,
      "single_word": false,
      "special": true
    },
    {
      "content": "<|img_row_10_col_10|>",
      "id": 496,
      "lstrip": false,
      "normalized": false,
      "rstrip": false,
      "single_word": false,
      "special": true
    },
    {
      "content": "<|img_thumbnail|>",
      "id": 497,
      "lstrip": false,
      "normalized": false,
      "rstrip": false,
      "single_word": false,
      "special": true
    },
    {
      "content": "<|image_start|>",
      "id": 498,
      "lstrip": false,
      "normalized": false,
      "rstrip": false,
      "single_word": false,
      "special": true
    },
    {
      "content": "<|image_end|>",
      "id": 499,
      "lstrip": false,
      "normalized": false,
      "rstrip": false,
      "single_word": false,
      "special": true
    },
    {
      "content": "<|image_split|>",
      "id": 500,
      "lstrip": false,
      "normalized": false,
      "rstrip": false,
      "single_word": false,
      "special": true
    },
    {
      "content": "Mathias",
      "id": 64011,
      "lstrip": false,
      "normalized": true,
      "rstrip": false,
      "single_word": false,
      "special": false
    },
    {
      "content": "python",
      "id": 64014,
      "lstrip": false,
      "normalized": true,
      "rstrip": false,
      "single_word": false,
      "special": false
    },
    {
      "content": "<|cot_start|>",
      "id": 64394,
      "lstrip": false,
      "normalized": false,
      "rstrip": false,
      "single_word": false,
      "special": true
    },
    {
      "content": "<|cot_end|>",
      "id": 64395,
      "lstrip": false,
      "normalized": false,
      "rstrip": false,
      "single_word": false,
      "special": true
    },
    {
      "content": "<|review_start|>",
      "id": 64396,
      "lstrip": false,
      "normalized": false,
      "rstrip": false,
      "single_word": false,
      "special": true
    },
    {
      "content": "<|review_end|>",
      "id": 64397,
      "lstrip": false,
      "normalized": false,
      "rstrip": false,
      "single_word": false,
      "special": true
    },
    {
      "content": "<|file_start|>",
      "id": 64398,
      "lstrip": false,
      "normalized": false,
      "rstrip": false,
      "single_word": false,
      "special": true
    },
    {
      "content": "<|file_end|>",
      "id": 64399,
      "lstrip": false,
      "normalized": false,
      "rstrip": false,
      "single_word": false,
      "special": true
    },
    {
      "content": "<think>",
      "id": 64400,
      "lstrip": false,
      "normalized": false,
      "rstrip": false,
      "single_word": false,
      "special": false
    },
    {
      "content": "</think>",
      "id": 64401,
      "lstrip": false,
      "normalized": false,
      "rstrip": false,
      "single_word": false,
      "special": false
    }
  ],
  "decoder": {
    "decoders": [
      {
        "add_prefix_space": true,
        "trim_offsets": true,
        "type": "ByteLevel",
        "use_regex": true
      }
    ],
    "type": "Sequence"
  },
  "model": {
    "byte_fallback": false,
    "continuing_subword_prefix": null,
    "dropout": null,
    "end_of_word_suffix": null,
    "fuse_unk": false,
    "ignore_merges": false,
    "merges": [
      [
        "Ċ",
        "Ċ"
      ],
      [
        "Ċ",
        "ĊĊ"
      ],
      [
        "ĊĊ",
        "Ċ"
      ],
      [
        "Ċ",
        "ĊĊĊ"
      ],
      [
        "ĊĊ",
        "ĊĊ"
      ],
      [
        "ĊĊĊ",
        "Ċ"
      ],
      [
        "Ċ",
        "ĊĊĊĊ"
      ],
      [
        "ĊĊ",
        "ĊĊĊ"
      ],
      [
        "ĊĊĊ",
        "ĊĊ"
      ],
      [
        "ĊĊĊĊ",
        "Ċ"
      ],
      [
        "Ċ",
        "ĊĊĊĊĊ"
      ],
      [
        "ĊĊ",
        "ĊĊĊĊ"
      ],
      [
        "ĊĊĊ",
        "ĊĊĊ"
      ],
      [
        "ĊĊĊĊ",
        "ĊĊ"
      ],
      [
        "ĊĊĊĊĊ",
        "Ċ"
      ],
      [
        "Ċ",
        "ĊĊĊĊĊĊ"
      ],
      [
        "ĊĊ",
        "ĊĊĊĊĊ"
      ],
      [
        "ĊĊĊ",
        "ĊĊĊĊ"
      ],
      [
        "ĊĊĊĊ",
        "ĊĊĊ"
      ],
      [
        "ĊĊĊĊĊ",
        "ĊĊ"
      ],
      [
        "ĊĊĊĊĊĊ",
        "Ċ"
      ],
      [
        "Ċ",
        "ĊĊĊĊĊĊĊ"
      ],
      [
        "ĊĊ",
        "ĊĊĊĊĊĊ"
      ],
      [
        "ĊĊĊ",
        "ĊĊĊĊĊ"
      ],
      [
        "ĊĊĊĊ",
        "ĊĊĊĊ"
      ],
      [
        "ĊĊĊĊĊ",
        "ĊĊĊ"
      ],
      [
        "ĊĊĊĊĊĊ",
        "ĊĊ"
      ],
      [
        "ĊĊĊĊĊĊĊ",
        "Ċ"
      ],
      [
        "Ċ",
        "ĊĊĊĊĊĊĊĊ"
      ],
      [
        "ĊĊ",
        "ĊĊĊĊĊĊĊ"
      ],
      [
        "ĊĊĊ",
        "ĊĊĊĊĊĊ"
      ],
      [
        "ĊĊĊĊ",
        "ĊĊĊĊĊ"
      ],
      [
        "ĊĊĊĊĊ",
        "ĊĊĊĊ"
      ],
      [
        "ĊĊĊĊĊĊ",
        "ĊĊĊ"
      ],
      [
        "ĊĊĊĊĊĊĊ",
        "ĊĊ"
      ],
      [
        "ĊĊĊĊĊĊĊĊ",
        "Ċ"
      ],
      [
        "Ċ",
        "ĊĊĊĊĊĊĊĊĊ"
      ],
      [
        "ĊĊ",
        "ĊĊĊĊĊĊĊĊ"
      ],
      [
        "ĊĊĊ",
        "ĊĊĊĊĊĊĊ"
      ],
      [
        "ĊĊĊĊ",
        "ĊĊĊĊĊĊ"
      ],
      [
        "ĊĊĊĊĊ",
        "ĊĊĊĊĊ"
      ],
      [
        "ĊĊĊĊĊĊ",
        "ĊĊĊĊ"
      ],
      [
        "ĊĊĊĊĊĊĊ",
        "ĊĊĊ"
      ],
      [
        "ĊĊĊĊĊĊĊĊ",
        "ĊĊ"
      ],
      [
        "ĊĊĊĊĊĊĊĊĊ",
        "Ċ"
      ],
      [
        "Ġ",
        "t"
      ],
      [
        "Ġ",
        "Ġ"
      ],
      [
        "Ġ",
        "a"
      ],
      [
        "i",
        "n"
      ],
      [
        "e",
        "r"
      ],
      [
        "e",
        "n"
      ],
      [
        "o",
        "n"
      ],
      [
        "h",
        "e"
      ],
      [
        "e",
        "s"
      ],
      [
        "Ġ",
        "s"
      ],
      [
        "a",
        "t"
      ],
      [
        "o",
        "r"
      ],
      [
        "Ġ",
        "d"
      ],
      [
        "Ġt",
        "he"
      ],
      [
        "a",
        "n"
      ],
      [
        "Ġ",
        "c"
      ],
      [
        "r",
        "e"
      ],
      [
        "i",
        "s"
      ],
      [
        "Ġ",
        "p"
      ],
      [
        "i",
        "t"
      ],
      [
        "a",
        "l"
      ],
      [
        "Ġ",
        "o"
      ],
      [
        "a",
        "r"
      ],
      [
        "Ġ",
        "w"
      ],
      [
        "ĠĠ",
        "ĠĠ"
      ],
      [
        "e",
        "d"
      ],
      [
        "Ġ",
        "f"
      ],
      [
        "i",
        "c"
      ],
      [
        "Ġ",
        "b"
      ],
      [
        "n",
        "d"
      ],
      [
        "Ġ",
        "m"
      ],
      [
        "Ġ",
        "in"
      ],
      [
        "o",
        "u"
      ],
      [
        "l",
        "e"
      ],
      [
        "in",
        "g"
      ],
      [
        "i",
        "on"
      ],
      [
        "a",
        "s"
      ],
      [
        "Ġo",
        "f"
      ],
      [
        "ã",
        "ģ"
      ],
      [
        "r",
        "o"
      ],
      [
        "en",
        "t"
      ],
      [
        "Ġ",
        "Ð"
      ],
      [
        "e",
        "l"
      ],
      [
        "Ġ",
        "l"
      ],
      [
        "Ġa",
        "nd"
      ],
      [
        "Ġt",
        "o"
      ],
      [
        "Ġ",
        "h"
      ],
      [
        "e",
        "t"
      ],
      [
        "i",
        "l"
      ],
      [
        "Ð",
        "¾"
      ],
      [
        "o",
        "m"
      ],
      [
        "Ġ",
        "n"
      ],
      [
        "Ð",
        "°"
      ],
      [
        ".",
        "Ċ"
      ],
      [
        "s",
        "t"
      ],
      [
        "Ġ",
        "e"
      ],
      [
        "c",
        "t"
      ],
      [
        "Ġt",
        "h"
      ],
      [
        "c",
        "h"
      ],
      [
        "Ġd",
        "e"
      ],
      [
        "Ġ",
        "S"
      ],
      [
        "u",
        "r"
      ],
      [
        "o",
        "l"
      ],
      [
        "Ð",
        "µ"
      ],
      [
        "Ð",
        "¸"
      ],
      [
        "a",
        "m"
      ],
      [
        "Ġ",
        "u"
      ],
      [
        "i",
        "d"
      ],
      [
        "i",
        "m"
      ],
      [
        "Ġ",
        "A"
      ],
      [
        "Ġ",
        "g"
      ],
      [
        "Ġ",
        "T"
      ],
      [
        "a",
        "d"
      ],
      [
        "i",
        "g"
      ],
      [
        "Ġ",
        "re"
      ],
      [
        "Ġ",
        "C"
      ],
      [
        "u",
        "t"
      ],
      [
        "Ġ",
        "("
      ],
      [
        "â",
        "Ģ"
      ],
      [
        "Ð",
        "½"
      ],
      [
        "i",
        "v"
      ],
      [
        "Ġ",
        "v"
      ],
      [
        "o",
        "s"
      ],
      [
        "o",
        "t"
      ],
      [
        "Ñ",
        "Ģ"
      ],
      [
        "ã",
        "Ĥ"
      ],
      [
        "at",
        "ion"
      ],
      [
        "r",
        "a"
      ],
      [
        "c",
        "e"
      ],
      [
        "Ñ",
        "Ĥ"
      ],
      [
        "Ġ",
        "is"
      ],
      [
        "Ġ",
        "M"
      ],
      [
        "Ñ",
        "ģ"
      ],
      [
        "Ġ",
        "I"
      ],
      [
        "Ã",
        "©"
      ],
      [
        "ĠĠ",
        "Ġ"
      ],
      [
        "q",
        "u"
      ],
      [
        "ã",
        "ĥ"
      ],
      [
        "i",
        "r"
      ],
      [
        "u",
        "l"
      ],
      [
        "Ð¾",
        "Ð"
      ],
      [
        "o",
        "w"
      ],
      [
        "u",
        "s"
      ],
      [
        "es",
        "t"
      ],
      [
        "e",
        "m"
      ],
      [
        "er",
        "s"
      ],
      [
        "ĠĠĠĠ",
        "ĠĠĠĠ"
      ],
      [
        "Ġ",
        "P"
      ],
      [
        "Ġb",
        "e"
      ],
      [
        "Ġf",
        "or"
      ],
      [
        "l",
        "y"
      ],
      [
        "Ġ",
        "r"
      ],
      [
        "Ġs",
        "t"
      ],
      [
        "Ġ",
        "B"
      ],
      [
        "Ġc",
        "on"
      ],
      [
        "t",
        "h"
      ],
      [
        "i",
        "e"
      ],
      [
        "Ġ",
        "y"
      ],
      [
        "Ġ",
        "on"
      ],
      [
        "u",
        "n"
      ],
      [
        "t",
        "er"
      ],
      [
        "o",
        "d"
      ],
      [
        "i",
        "f"
      ],
      [
        "Ġ",
        "D"
      ],
      [
        "a",
        "g"
      ],
      [
        "Ġa",
        "l"
      ],
      [
        "a",
        "y"
      ],
      [
        "is",
        "t"
      ],
      [
        "es",
        "s"
      ],
      [
        "it",
        "h"
      ],
      [
        "Ġth",
        "at"
      ],
      [
        "a",
        "b"
      ],
      [
        "2",
        "0"
      ],
      [
        "Ġp",
        "ro"
      ],
      [
        "u",
        "m"
      ],
      [
        "Ġw",
        "h"
      ],
      [
        "Ġa",
        "n"
      ],
      [
        "Ġ",
        "L"
      ],
      [
        "Ġ",
        "H"
      ],
      [
        "an",
        "d"
      ],
      [
        "Ġa",
        "s"
      ],
      [
        "a",
        "c"
      ],
      [
        "Ġ",
        "E"
      ],
      [
        "Ġ",
        "R"
      ],
      [
        "Ð",
        "»"
      ],
      [
        "Ġ",
        "F"
      ],
      [
        "s",
        "e"
      ],
      [
        "1",
        "9"
      ],
      [
        "a",
        "v"
      ],
      [
        "Ġ",
        "en"
      ],
      [
        "Ġw",
        "ith"
      ],
      [
        "er",
        "e"
      ],
      [
        "Ġ",
        "G"
      ],
      [
        "an",
        "t"
      ],
      [
        "o",
        "p"
      ],
      [
        "v",
        "er"
      ],
      [
        "Ġc",
        "om"
      ],
      [
        "Ġ",
        "W"
      ],
      [
        "c",
        "i"
      ],
      [
        "Ġs",
        "e"
      ],
      [
        "ou",
        "r"
      ],
      [
        "Ð",
        "º"
      ],
      [
        "Ġ",
        "N"
      ],
      [
        "t",
        "e"
      ],
      [
        "r",
        "i"
      ],
      [
        "at",
        "e"
      ],
      [
        "Ñ",
        "ĥ"
      ],
      [
        "Ġ",
        "or"
      ],
      [
        "p",
        "e"
      ],
      [
        "ã",
        "Ģ"
      ],
      [
        "Ġ",
        "it"
      ],
      [
        "il",
        "l"
      ],
      [
        "Ġa",
        "re"
      ],
      [
        "ic",
        "h"
      ],
      [
        "Ġe",
        "x"
      ],
      [
        "ĠT",
        "he"
      ],
      [
        "Ġs",
        "u"
      ],
      [
        "Ġ",
        "k"
      ],
      [
        "Ġl",
        "a"
      ],
      [
        "Ġ",
        "le"
      ],
      [
        "Ġu",
        "n"
      ],
      [
        "or",
        "t"
      ],
      [
        "a",
        "p"
      ],
      [
        "u",
        "d"
      ],
      [
        "Ġ",
        "he"
      ],
      [
        "ar",
        "t"
      ],
      [
        "o",
        "g"
      ],
      [
        "Ġw",
        "as"
      ],
      [
        "Ð",
        "²"
      ],
      [
        "a",
        "k"
      ],
      [
        "ro",
        "m"
      ],
      [
        "m",
        "ent"
      ],
      [
        "a",
        "in"
      ],
      [
        "en",
        "d"
      ],
      [
        "it",
        "y"
      ],
      [
        "ig",
        "h"
      ],
      [
        "Ġ",
        "J"
      ],
      [
        "Ġa",
        "t"
      ],
      [
        "ĠĠĠĠ",
        "ĠĠĠ"
      ],
      [
        "el",
        "l"
      ],
      [
        "o",
        "c"
      ],
      [
        "Ġ",
        "qu"
      ],
      [
        "Ġb",
        "y"
      ],
      [
        "i",
        "es"
      ],
      [
        "Ġ",
        "Ċ"
      ],
      [
        "Ġn",
        "e"
      ],
      [
        "i",
        "a"
      ],
      [
        "l",
        "d"
      ],
      [
        ";",
        "Ċ"
      ],
      [
        "iv",
        "e"
      ],
      [
        "in",
        "e"
      ],
      [
        "g",
        "e"
      ],
      [
        "Ø",
        "§"
      ],
      [
        "Ġc",
        "h"
      ],
      [
        "ct",
        "ion"
      ],
      [
        "Ġ",
        "O"
      ],
      [
        "p",
        "l"
      ],
      [
        "or",
        "e"
      ],
      [
        "Ġ",
        "K"
      ],
      [
        "u",
        "re"
      ],
      [
        "al",
        "l"
      ],
      [
        "Ġ",
        "âĢ"
      ],
      [
        "Ġf",
        "rom"
      ],
      [
        "Ñ",
        "ı"
      ],
      [
        "Ñ",
        "ĸ"
      ],
      [
        "p",
        "t"
      ],
      [
        "Ð",
        "¼"
      ],
      [
        "Ð",
        "´"
      ],
      [
        "i",
        "z"
      ],
      [
        "âĢ",
        "Ļ"
      ],
      [
        "Ġ",
        "j"
      ],
      [
        "Ġ",
        "\""
      ],
      [
        "an",
        "s"
      ],
      [
        "o",
        "v"
      ],
      [
        "o",
        "st"
      ],
      [
        "av",
        "e"
      ],
      [
        "Ġp",
        "r"
      ],
      [
        "Ġ",
        "U"
      ],
      [
        "as",
        "s"
      ],
      [
        "r",
        "u"
      ],
      [
        "b",
        "er"
      ],
      [
        "p",
        "er"
      ],
      [
        "ar",
        "d"
      ],
      [
        "Ã",
        "³"
      ],
      [
        "Ġy",
        "ou"
      ],
      [
        "Ġc",
        "an"
      ],
      [
        "e",
        "ct"
      ],
      [
        "Ġ",
        "im"
      ],
      [
        "Ġn",
        "ot"
      ],
      [
        ")",
        "Ċ"
      ],
      [
        "f",
        "f"
      ],
      [
        "igh",
        "t"
      ],
      [
        "Ġp",
        "l"
      ],
      [
        "Ġ",
        "V"
      ],
      [
        "Ã",
        "¡"
      ],
      [
        "ic",
        "al"
      ],
      [
        "Ù",
        "Ħ"
      ],
      [
        "Ġw",
        "e"
      ],
      [
        "20",
        "1"
      ],
      [
        "p",
        "p"
      ],
      [
        "r",
        "ou"
      ],
      [
        "Ġs",
        "h"
      ],
      [
        "u",
        "b"
      ],
      [
        "as",
        "t"
      ],
      [
        "ĠI",
        "n"
      ],
      [
        "a",
        "ch"
      ],
      [
        "Ġ",
        "Ã"
      ],
      [
        "Ġth",
        "is"
      ],
      [
        "Ġd",
        "es"
      ],
      [
        "u",
        "st"
      ],
      [
        "Ñģ",
        "ÑĤ"
      ],
      [
        "u",
        "e"
      ],
      [
        "ĠÐ",
        "¿"
      ],
      [
        "Ġr",
        "es"
      ],
      [
        "ä",
        "¸"
      ],
      [
        "en",
        "s"
      ],
      [
        "ul",
        "t"
      ],
      [
        "n",
        "e"
      ],
      [
        "Ġu",
        "nd"
      ],
      [
        "Ġ",
        "ì"
      ],
      [
        "i",
        "re"
      ],
      [
        "ag",
        "e"
      ],
      [
        "at",
        "ed"
      ],
      [
        "Ã",
        "Ń"
      ],
      [
        "in",
        "d"
      ],
      [
        "Ġ",
        "="
      ],
      [
        "Ġh",
        "ave"
      ],
      [
        "Ġa",
        "b"
      ],
      [
        "i",
        "b"
      ],
      [
        "i",
        "k"
      ],
      [
        "0",
        "0"
      ],
      [
        "Ġ",
        "z"
      ],
      [
        "Ġ",
        "$"
      ],
      [
        "or",
        "m"
      ],
      [
        "c",
        "l"
      ],
      [
        "or",
        "d"
      ],
      [
        "Ñ",
        "Į"
      ],
      [
        "o",
        "k"
      ],
      [
        "Ġc",
        "l"
      ],
      [
        "i",
        "p"
      ],
      [
        "ou",
        "t"
      ],
      [
        "n",
        "t"
      ],
      [
        "am",
        "e"
      ],
      [
        "ou",
        "s"
      ],
      [
        "g",
        "h"
      ],
      [
        "om",
        "e"
      ],
      [
        "a",
        "re"
      ],
      [
        "i",
        "al"
      ],
      [
        "ĠÐ",
        "²"
      ],
      [
        "d",
        "u"
      ],
      [
        "s",
        "o"
      ],
      [
        "Ġcom",
        "p"
      ],
      [
        "Ġ",
        "\\"
      ],
      [
        "at",
        "h"
      ],
      [
        "ou",
        "ld"
      ],
      [
        "Ġu",
        "s"
      ],
      [
        "id",
        "e"
      ],
      [
        "e",
        "ar"
      ],
      [
        "ãģ",
        "®"
      ],
      [
        "ï",
        "¼"
      ],
      [
        "20",
        "0"
      ],
      [
        "ĠS",
        "t"
      ],
      [
        "en",
        "ce"
      ],
      [
        "c",
        "c"
      ],
      [
        "'",
        "s"
      ],
      [
        "Ġcon",
        "t"
      ],
      [
        "ÑĢ",
        "Ð°"
      ],
      [
        "on",
        "g"
      ],
      [
        "Ġp",
        "er"
      ],
      [
        "t",
        "o"
      ],
      [
        "ãĢ",
        "ģ"
      ],
      [
        "ĠT",
        "h"
      ],
      [
        "T",
        "he"
      ],
      [
        "a",
        "ct"
      ],
      [
        "f",
        "er"
      ],
      [
        "Ġs",
        "o"
      ],
      [
        "p",
        "r"
      ],
      [
        "Ġa",
        "d"
      ],
      [
        "ent",
        "s"
      ],
      [
        "}",
        "Ċ"
      ],
      [
        "an",
        "g"
      ],
      [
        "Ã",
        "¤"
      ],
      [
        "ab",
        "le"
      ],
      [
        ")",
        ","
      ],
      [
        "Ñ",
        "ĩ"
      ],
      [
        "p",
        "h"
      ],
      [
        "Ġd",
        "o"
      ],
      [
        "Ġal",
        "l"
      ],
      [
        "ion",
        "s"
      ],
      [
        "Ñ",
        "ĭ"
      ],
      [
        "Ð½",
        "Ð¸"
      ],
      [
        "Ġ",
        "el"
      ],
      [
        "th",
        "er"
      ],
      [
        "ig",
        "n"
      ],
      [
        "p",
        "ort"
      ],
      [
        "ĠĠĠĠĠĠĠĠ",
        "ĠĠĠ"
      ],
      [
        "Ġt",
        "r"
      ],
      [
        "Ġm",
        "e"
      ],
      [
        "v",
        "e"
      ],
      [
        "it",
        "e"
      ],
      [
        "ar",
        "y"
      ],
      [
        "Ġ",
        "et"
      ],
      [
        "ac",
        "k"
      ],
      [
        "or",
        "k"
      ],
      [
        "ĉ",
        "ĉ"
      ],
      [
        "Ð¾Ð",
        "²"
      ],
      [
        "ation",
        "s"
      ],
      [
        "1",
        "8"
      ],
      [
        "Ġd",
        "is"
      ],
      [
        "d",
        "e"
      ],
      [
        "c",
        "on"
      ],
      [
        "Ġ",
        "Ñģ"
      ],
      [
        "Ġa",
        "r"
      ],
      [
        "ic",
        "e"
      ],
      [
        "Ġd",
        "er"
      ],
      [
        "Ġ",
        "-"
      ],
      [
        "Ã",
        "¼"
      ],
      [
        "an",
        "ce"
      ],
      [
        "Ġwh",
        "ich"
      ],
      [
        "i",
        "er"
      ],
      [
        "as",
        "e"
      ],
      [
        "ãĢ",
        "Ĥ"
      ],
      [
        "Ġp",
        "ar"
      ],
      [
        "Ġthe",
        "ir"
      ],
      [
        "Ð",
        "·"
      ],
      [
        "u",
        "al"
      ],
      [
        "Ġt",
        "e"
      ],
      [
        ")",
        ";Ċ"
      ],
      [
        "Ð",
        "¹"
      ],
      [
        "1",
        "0"
      ],
      [
        "Ù",
        "Ĭ"
      ],
      [
        "ĠC",
        "h"
      ],
      [
        "r",
        "y"
      ],
      [
        "a",
        "ce"
      ],
      [
        "Ð",
        "¿"
      ],
      [
        "c",
        "he"
      ],
      [
        "in",
        "t"
      ],
      [
        "Ġqu",
        "e"
      ],
      [
        "e",
        "g"
      ],
      [
        "c",
        "es"
      ],
      [
        "Ġw",
        "ere"
      ],
      [
        "i",
        "le"
      ],
      [
        "un",
        "g"
      ],
      [
        "o",
        "od"
      ],
      [
        "Ġ",
        "est"
      ],
      [
        "i",
        "o"
      ],
      [
        "âĢĻ",
        "s"
      ],
      [
        "il",
        "d"
      ],
      [
        "on",
        "e"
      ],
      [
        "im",
        "e"
      ],
      [
        "Ñ",
        "ħ"
      ],
      [
        "Ġm",
        "an"
      ],
      [
        "Ġh",
        "as"
      ],
      [
        "-",
        "-"
      ],
      [
        "Ġy",
        "our"
      ],
      [
        "Ġp",
        "re"
      ],
      [
        "at",
        "er"
      ],
      [
        "o",
        "b"
      ],
      [
        "i",
        "an"
      ],
      [
        "it",
        "ion"
      ],
      [
        "Ġthe",
        "y"
      ],
      [
        "m",
        "er"
      ],
      [
        "Ġw",
        "ill"
      ],
      [
        "or",
        "s"
      ],
      [
        "ãģ",
        "Ħ"
      ],
      [
        ")",
        "."
      ],
      [
        "Ġp",
        "art"
      ],
      [
        "c",
        "k"
      ],
      [
        "v",
        "el"
      ],
      [
        "Ġ",
        "Ø"
      ],
      [
        "Ġ",
        "{"
      ],
      [
        "ĠÐ",
        "½"
      ],
      [
        "ï¼",
        "Į"
      ],
      [
        "f",
        "orm"
      ],
      [
        "Ø§",
        "ÙĦ"
      ],
      [
        "e",
        "p"
      ],
      [
        "Ù",
        "ħ"
      ],
      [
        "Ġb",
        "ut"
      ],
      [
        ">",
        "Ċ"
      ],
      [
        "os",
        "e"
      ],
      [
        "a",
        "u"
      ],
      [
        "er",
        "v"
      ],
      [
        "Ðµ",
        "ÑĢ"
      ],
      [
        "Ġm",
        "ore"
      ],
      [
        "Ġh",
        "is"
      ],
      [
        "f",
        "t"
      ],
      [
        "w",
        "e"
      ],
      [
        "l",
        "l"
      ],
      [
        "a",
        "us"
      ],
      [
        "r",
        "it"
      ],
      [
        "Ã",
        "¶"
      ],
      [
        "/",
        "/"
      ],
      [
        "Ġd",
        "i"
      ],
      [
        "Â",
        "ł"
      ],
      [
        "is",
        "h"
      ],
      [
        "l",
        "ic"
      ],
      [
        "Ð",
        "±"
      ],
      [
        "Ð",
        "³"
      ],
      [
        "Ġ",
        "i"
      ],
      [
        "e",
        "w"
      ],
      [
        "or",
        "y"
      ],
      [
        "r",
        "ic"
      ],
      [
        "Ðµ",
        "Ð½"
      ],
      [
        "Ġ",
        "ë"
      ],
      [
        "Ġo",
        "ut"
      ],
      [
        "ì",
        "Ŀ"
      ],
      [
        "Ġ",
        "ro"
      ],
      [
        "Ġs",
        "p"
      ],
      [
        "ĠĠĠĠ",
        "Ġ"
      ],
      [
        "Ġon",
        "e"
      ],
      [
        "Ġal",
        "so"
      ],
      [
        "el",
        "y"
      ],
      [
        "âĢ",
        "Ŀ"
      ],
      [
        "er",
        "t"
      ],
      [
        "ä",
        "º"
      ],
      [
        "on",
        "t"
      ],
      [
        "x",
        "t"
      ],
      [
        "Ġd",
        "el"
      ],
      [
        "a",
        "il"
      ],
      [
        "ot",
        "h"
      ],
      [
        "ou",
        "nt"
      ],
      [
        "ãģ",
        "§"
      ],
      [
        "=",
        "\""
      ],
      [
        "ĠâĢ",
        "ĵ"
      ],
      [
        "ur",
        "n"
      ],
      [
        "Ġin",
        "ter"
      ],
      [
        "er",
        "m"
      ],
      [
        "Ñ",
        "Ĩ"
      ],
      [
        "t",
        "en"
      ],
      [
        "ol",
        "l"
      ],
      [
        "ĠÐ",
        "¸"
      ],
      [
        "ak",
        "e"
      ],
      [
        "ĠĠĠĠĠĠĠĠ",
        "ĠĠĠĠĠĠĠ"
      ],
      [
        "ãĥ",
        "¼"
      ],
      [
        "Ġp",
        "e"
      ],
      [
        "Ġe",
        "v"
      ],
      [
        "ãģ",
        "«"
      ],
      [
        "ol",
        "og"
      ],
      [
        "y",
        "s"
      ],
      [
        "g",
        "r"
      ],
      [
        "ĠÐ",
        "¾"
      ],
      [
        "Ġ",
        "Y"
      ],
      [
        "Ġ",
        "*"
      ],
      [
        "ou",
        "nd"
      ],
      [
        "ãģ",
        "Ĺ"
      ],
      [
        "is",
        "s"
      ],
      [
        "ow",
        "n"
      ],
      [
        "Ġ",
        "es"
      ],
      [
        "at",
        "a"
      ],
      [
        "Ġa",
        "u"
      ],
      [
        "r",
        "es"
      ],
      [
        "Ġd",
        "ie"
      ],
      [
        "Ð¾",
        "ÑĢ"
      ],
      [
        "c",
        "re"
      ],
      [
        "r",
        "en"
      ],
      [
        "<",
        "/"
      ],
      [
        ".",
        "."
      ],
      [
        "Ġa",
        "m"
      ],
      [
        "Ð¾Ð",
        "´"
      ],
      [
        "a",
        "h"
      ],
      [
        "I",
        "n"
      ],
      [
        "Ġu",
        "p"
      ],
      [
        "Ġ",
        "if"
      ],
      [
        "ĠU",
        "n"
      ],
      [
        "Ġcom",
        "m"
      ],
      [
        "æ",
        "ľ"
      ],
      [
        "o",
        "ok"
      ],
      [
        "Ù",
        "Ī"
      ],
      [
        "i",
        "en"
      ],
      [
        "Ġn",
        "o"
      ],
      [
        "on",
        "s"
      ],
      [
        "ç",
        "ļ"
      ],
      [
        "Ġ",
        "Ø§ÙĦ"
      ],
      [
        "re",
        "at"
      ],
      [
        "Ð°",
        "Ð½"
      ],
      [
        "if",
        "ic"
      ],
      [
        "p",
        "le"
      ],
      [
        "Ġs",
        "y"
      ],
      [
        "Ġst",
        "ud"
      ],
      [
        "c",
        "om"
      ],
      [
        "ĠÐ",
        "º"
      ],
      [
        "re",
        "e"
      ],
      [
        "r",
        "an"
      ],
      [
        "ci",
        "al"
      ],
      [
        "Ã",
        "¨"
      ],
      [
        "ĠI",
        "t"
      ],
      [
        "Ġo",
        "ther"
      ],
      [
        "Ġ",
        "er"
      ],
      [
        "Ù",
        "Ĩ"
      ],
      [
        "Ð¾Ð",
        "¼"
      ],
      [
        "Ġwh",
        "o"
      ],
      [
        "çļ",
        "Ħ"
      ],
      [
        "ãģ",
        "¦"
      ],
      [
        "on",
        "d"
      ],
      [
        "Ġh",
        "ad"
      ],
      [
        "o",
        "ver"
      ],
      [
        "ar",
        "k"
      ],
      [
        "et",
        "h"
      ],
      [
        "i",
        "el"
      ],
      [
        "Ġa",
        "g"
      ],
      [
        "Ġo",
        "b"
      ],
      [
        "ing",
        "s"
      ],
      [
        "Ġ{",
        "Ċ"
      ],
      [
        "ãģ",
        "¨"
      ],
      [
        "Ġs",
        "pe"
      ],
      [
        "Ñģ",
        "Ðº"
      ],
      [
        "Ð°",
        "Ð»"
      ],
      [
        "l",
        "es"
      ],
      [
        ":",
        "Ċ"
      ],
      [
        "in",
        "k"
      ],
      [
        "Ġw",
        "ork"
      ],
      [
        "Ġab",
        "out"
      ],
      [
        "at",
        "es"
      ],
      [
        "ad",
        "e"
      ],
      [
        "ĠÃ",
        "ł"
      ],
      [
        "Ã³",
        "n"
      ],
      [
        "Ð¾Ð",
        "»"
      ],
      [
        "er",
        "n"
      ],
      [
        "19",
        "9"
      ],
      [
        "ãģ",
        "Ļ"
      ],
      [
        "is",
        "e"
      ],
      [
        "j",
        "ect"
      ],
      [
        "Ġcon",
        "s"
      ],
      [
        "ĠÐ",
        "´"
      ],
      [
        "ro",
        "w"
      ],
      [
        "em",
        "ent"
      ],
      [
        "Ġit",
        "s"
      ],
      [
        "|",
        "|"
      ],
      [
        "i",
        "ent"
      ],
      [
        "Ġe",
        "m"
      ],
      [
        "u",
        "nd"
      ],
      [
        "qu",
        "e"
      ],
      [
        "å",
        "ı"
      ],
      [
        "i",
        "ed"
      ],
      [
        "ay",
        "s"
      ],
      [
        "Ġne",
        "w"
      ],
      [
        "an",
        "n"
      ],
      [
        "Ø§",
        "Ø"
      ],
      [
        "al",
        "e"
      ],
      [
        "ol",
        "d"
      ],
      [
        "Ġg",
        "en"
      ],
      [
        "Ġd",
        "if"
      ],
      [
        "ri",
        "b"
      ],
      [
        "a",
        "z"
      ],
      [
        "ãĤ",
        "ĭ"
      ],
      [
        "ĠâĢ",
        "ľ"
      ],
      [
        "p",
        "s"
      ],
      [
        "ãģ",
        "ª"
      ],
      [
        "1",
        "2"
      ],
      [
        "Ġv",
        "er"
      ],
      [
        "ar",
        "i"
      ],
      [
        "Ġthe",
        "m"
      ],
      [
        "Ð¾Ð",
        "³"
      ],
      [
        "ĠÐ½",
        "Ð°"
      ],
      [
        "ir",
        "st"
      ],
      [
        "Ġbe",
        "en"
      ],
      [
        "n",
        "g"
      ],
      [
        "cl",
        "ud"
      ],
      [
        "Ġt",
        "ra"
      ],
      [
        "u",
        "g"
      ],
      [
        "1",
        "5"
      ],
      [
        "å",
        "ħ"
      ],
      [
        "ãģ",
        "Į"
      ],
      [
        "ãģ",
        "Ł"
      ],
      [
        "Ġb",
        "l"
      ],
      [
        "Ġo",
        "ver"
      ],
      [
        "Ġs",
        "a"
      ],
      [
        "Ġs",
        "ur"
      ],
      [
        "Ġt",
        "ime"
      ],
      [
        "ic",
        "k"
      ],
      [
        "Ġ",
        "Z"
      ],
      [
        "le",
        "ct"
      ],
      [
        "ä",
        "»"
      ],
      [
        "Ġth",
        "an"
      ],
      [
        "Ġm",
        "ay"
      ],
      [
        "Ġ",
        "&"
      ],
      [
        "Ġa",
        "ct"
      ],
      [
        "Ġwh",
        "en"
      ],
      [
        "Ã©",
        "s"
      ],
      [
        "ĠH",
        "e"
      ],
      [
        "ter",
        "n"
      ],
      [
        "ou",
        "gh"
      ],
      [
        "âĢ",
        "ĵ"
      ],
      [
        "p",
        "ro"
      ],
      [
        "Ġa",
        "cc"
      ],
      [
        "Ġb",
        "et"
      ],
      [
        "w",
        "o"
      ],
      [
        "Ġth",
        "ere"
      ],
      [
        "ãĤ",
        "Ĵ"
      ],
      [
        "ÑĢ",
        "Ðµ"
      ],
      [
        "ĠR",
        "e"
      ],
      [
        "1",
        "7"
      ],
      [
        "Ġ",
        "Â"
      ],
      [
        "Ġin",
        "to"
      ],
      [
        "t",
        "t"
      ],
      [
        ",",
        "Ċ"
      ],
      [
        "Ġre",
        "l"
      ],
      [
        "Ġy",
        "ear"
      ],
      [
        "âĢ",
        "Ķ"
      ],
      [
        "ãģ",
        "¯"
      ],
      [
        "op",
        "le"
      ],
      [
        "in",
        "s"
      ],
      [
        "Ġ",
        "<"
      ],
      [
        "Ġs",
        "ome"
      ],
      [
        "ation",
        "al"
      ],
      [
        "_",
        "{"
      ],
      [
        "s",
        "s"
      ],
      [
        "Ñ",
        "Ī"
      ],
      [
        "Ġf",
        "l"
      ],
      [
        "Ġre",
        "g"
      ],
      [
        "oc",
        "k"
      ],
      [
        "ul",
        "ar"
      ],
      [
        "ĠĠĠĠĠĠĠĠ",
        "Ġ"
      ],
      [
        "in",
        "al"
      ],
      [
        "Ñ",
        "İ"
      ],
      [
        "t",
        "s"
      ],
      [
        "ãģ",
        "¾"
      ],
      [
        "1",
        "6"
      ],
      [
        "å",
        "¤"
      ],
      [
        "ik",
        "e"
      ],
      [
        "Ġp",
        "o"
      ],
      [
        "Ġ",
        "ent"
      ],
      [
        "st",
        "em"
      ],
      [
        "iv",
        "ers"
      ],
      [
        "Ġh",
        "er"
      ],
      [
        "Ġk",
        "n"
      ],
      [
        "Ġ",
        "'"
      ],
      [
        "ç",
        "Ķ"
      ],
      [
        "ÑĢ",
        "Ð¸"
      ],
      [
        "Ġ",
        ":"
      ],
      [
        "c",
        "ed"
      ],
      [
        "å",
        "®"
      ],
      [
        "a",
        "j"
      ],
      [
        "Ġin",
        "d"
      ],
      [
        "Ġre",
        "c"
      ],
      [
        "ar",
        "g"
      ],
      [
        "f",
        "ter"
      ],
      [
        "*",
        "*"
      ],
      [
        "os",
        "s"
      ],
      [
        "Ġ",
        "ra"
      ],
      [
        "Å",
        "Ĥ"
      ],
      [
        "ãĥ",
        "³"
      ],
      [
        "Ġm",
        "od"
      ],
      [
        "ub",
        "lic"
      ],
      [
        "ĠTh",
        "is"
      ],
      [
        "Ġp",
        "h"
      ],
      [
        "Ġbe",
        "c"
      ],
      [
        "Ð¾",
        "Ð½"
      ],
      [
        "ÑĤ",
        "Ð°"
      ],
      [
        "Ġc",
        "ol"
      ],
      [
        "Ġl",
        "es"
      ],
      [
        "m",
        "e"
      ],
      [
        "m",
        "a"
      ],
      [
        "Ðµ",
        "Ð»"
      ],
      [
        "s",
        "p"
      ],
      [
        "e",
        "b"
      ],
      [
        "rou",
        "gh"
      ],
      [
        "c",
        "ess"
      ],
      [
        "u",
        "ch"
      ],
      [
        "Ġre",
        "t"
      ],
      [
        "al",
        "s"
      ],
      [
        "el",
        "f"
      ],
      [
        "ĠÐ",
        "·"
      ],
      [
        "Ø",
        "±"
      ],
      [
        "Ġund",
        "er"
      ],
      [
        "ĠA",
        "l"
      ],
      [
        "Ġpro",
        "du"
      ],
      [
        "Ġd",
        "u"
      ],
      [
        "Ġo",
        "ur"
      ],
      [
        "Ġa",
        "pp"
      ],
      [
        "Ð",
        "¶"
      ],
      [
        "r",
        "ing"
      ],
      [
        "o",
        "ol"
      ],
      [
        "Ġw",
        "ould"
      ],
      [
        "ĠÐ",
        "³"
      ],
      [
        "l",
        "and"
      ],
      [
        "í",
        "ķ"
      ],
      [
        "Ġe",
        "in"
      ],
      [
        "ic",
        "s"
      ],
      [
        "S",
        "t"
      ],
      [
        "d",
        "er"
      ],
      [
        "Ġin",
        "t"
      ],
      [
        "ĠA",
        "r"
      ],
      [
        "Ġf",
        "irst"
      ],
      [
        "Ġf",
        "e"
      ],
      [
        "aus",
        "e"
      ],
      [
        "it",
        "s"
      ],
      [
        "e",
        "x"
      ],
      [
        "Ġa",
        "p"
      ],
      [
        "Ġcl",
        "ass"
      ],
      [
        "ĠD",
        "e"
      ],
      [
        "Ġu",
        "se"
      ],
      [
        "Ġthe",
        "se"
      ],
      [
        "Ġpe",
        "ople"
      ],
      [
        "k",
        "e"
      ],
      [
        "ĠÐ",
        "¼"
      ],
      [
        "å",
        "Ī"
      ],
      [
        "Ġan",
        "y"
      ],
      [
        "o",
        "y"
      ],
      [
        "Ġ",
        "Ã©"
      ],
      [
        "Ġe",
        "ff"
      ],
      [
        "Ġpro",
        "v"
      ],
      [
        "Ġs",
        "c"
      ],
      [
        "Ġm",
        "ost"
      ],
      [
        "Ġat",
        "t"
      ],
      [
        "Ġh",
        "ow"
      ],
      [
        "1",
        "3"
      ],
      [
        "y",
        "pe"
      ],
      [
        "Ġfor",
        "m"
      ],
      [
        "it",
        "ies"
      ],
      [
        "1",
        "4"
      ],
      [
        "Ġin",
        "clud"
      ],
      [
        "Ġa",
        "c"
      ],
      [
        "at",
        "ive"
      ],
      [
        "ĠS",
        "e"
      ],
      [
        "b",
        "le"
      ],
      [
        "et",
        "t"
      ],
      [
        "z",
        "e"
      ],
      [
        "ar",
        "n"
      ],
      [
        "l",
        "i"
      ],
      [
        "it",
        "t"
      ],
      [
        "Ġt",
        "wo"
      ],
      [
        "T",
        "h"
      ],
      [
        "id",
        "ent"
      ],
      [
        "Ġon",
        "ly"
      ],
      [
        "c",
        "y"
      ],
      [
        "Ġsu",
        "b"
      ],
      [
        "Ġpr",
        "es"
      ],
      [
        "ä",
        "½"
      ],
      [
        "Ġ",
        "ê"
      ],
      [
        "at",
        "ing"
      ],
      [
        "u",
        "p"
      ],
      [
        "or",
        "n"
      ],
      [
        "Ġsu",
        "ch"
      ],
      [
        "o",
        "h"
      ],
      [
        "ers",
        "on"
      ],
      [
        "rou",
        "nd"
      ],
      [
        "Ġa",
        "v"
      ],
      [
        "vel",
        "op"
      ],
      [
        "ĠP",
        "ro"
      ],
      [
        "Ġd",
        "en"
      ],
      [
        "Ġg",
        "r"
      ],
      [
        "pe",
        "ct"
      ],
      [
        "Ġh",
        "igh"
      ],
      [
        "ce",
        "pt"
      ],
      [
        "as",
        "ed"
      ],
      [
        "g",
        "an"
      ],
      [
        "Ġin",
        "v"
      ],
      [
        "al",
        "th"
      ],
      [
        "Ġp",
        "ol"
      ],
      [
        "ÑĤ",
        "Ð¸"
      ],
      [
        "ie",
        "w"
      ],
      [
        "Ġtr",
        "ans"
      ],
      [
        "i",
        "x"
      ],
      [
        "ar",
        "s"
      ],
      [
        "he",
        "d"
      ],
      [
        "Ø",
        "©"
      ],
      [
        "Ġm",
        "ed"
      ],
      [
        "od",
        "e"
      ],
      [
        "ĠW",
        "h"
      ],
      [
        "is",
        "m"
      ],
      [
        "al",
        "ly"
      ],
      [
        "ad",
        "o"
      ],
      [
        "r",
        "ess"
      ],
      [
        "ur",
        "es"
      ],
      [
        "e",
        "k"
      ],
      [
        "ĠA",
        "n"
      ],
      [
        "Ġus",
        "ed"
      ],
      [
        "ow",
        "er"
      ],
      [
        "Ġne",
        "ed"
      ],
      [
        "Ġd",
        "ur"
      ],
      [
        "re",
        "d"
      ],
      [
        "ut",
        "ion"
      ],
      [
        "Ñ",
        "Ħ"
      ],
      [
        "19",
        "8"
      ],
      [
        "Ġdif",
        "fer"
      ],
      [
        "æ",
        "ĸ"
      ],
      [
        "å",
        "Ĳ"
      ],
      [
        "Ġas",
        "s"
      ],
      [
        "ĠÐ",
        "±"
      ],
      [
        "ib",
        "le"
      ],
      [
        "Ġ",
        "["
      ],
      [
        "p",
        "ar"
      ],
      [
        "Ð½",
        "Ð°"
      ],
      [
        "Ġre",
        "m"
      ],
      [
        "\"",
        "Ċ"
      ],
      [
        "Ġof",
        "f"
      ],
      [
        "ic",
        "t"
      ],
      [
        "Ġad",
        "d"
      ],
      [
        "at",
        "t"
      ],
      [
        "p",
        "os"
      ],
      [
        "u",
        "c"
      ],
      [
        "ul",
        "l"
      ],
      [
        "b",
        "e"
      ],
      [
        "Ġwh",
        "at"
      ],
      [
        "R",
        "e"
      ],
      [
        "w",
        "n"
      ],
      [
        "Ġv",
        "al"
      ],
      [
        "i",
        "j"
      ],
      [
        "or",
        "ld"
      ],
      [
        "Ġth",
        "rough"
      ],
      [
        "ĠC",
        "om"
      ],
      [
        "ĠL",
        "e"
      ],
      [
        "Ġde",
        "f"
      ],
      [
        "il",
        "ity"
      ],
      [
        "Ġ",
        "}Ċ"
      ],
      [
        "1",
        "1"
      ],
      [
        "c",
        "ent"
      ],
      [
        "iz",
        "e"
      ],
      [
        ")",
        ".Ċ"
      ],
      [
        "Ġc",
        "he"
      ],
      [
        "ic",
        "a"
      ],
      [
        "Ġg",
        "o"
      ],
      [
        "Ġs",
        "er"
      ],
      [
        "Ġde",
        "m"
      ],
      [
        "Ġin",
        "f"
      ],
      [
        "v",
        "ent"
      ],
      [
        "ov",
        "e"
      ],
      [
        "we",
        "en"
      ],
      [
        "if",
        "e"
      ],
      [
        "Ġn",
        "um"
      ],
      [
        "Ġs",
        "ch"
      ],
      [
        "ant",
        "s"
      ],
      [
        "i",
        "Ã³n"
      ],
      [
        "ë",
        "ĭ"
      ],
      [
        "Ġhe",
        "l"
      ],
      [
        "ĠØ§ÙĦ",
        "Ø"
      ],
      [
        "in",
        "a"
      ],
      [
        "Ġa",
        "ut"
      ],
      [
        "Ġl",
        "os"
      ],
      [
        "{",
        "\\"
      ],
      [
        "Ġin",
        "st"
      ],
      [
        "g",
        "en"
      ],
      [
        "f",
        "ore"
      ],
      [
        "us",
        "s"
      ],
      [
        "Ġv",
        "on"
      ],
      [
        "le",
        "t"
      ],
      [
        "ĠS",
        "ch"
      ],
      [
        "3",
        "0"
      ],
      [
        "f",
        "ul"
      ],
      [
        "in",
        "es"
      ],
      [
        "ment",
        "s"
      ],
      [
        "an",
        "ge"
      ],
      [
        "Ġ",
        "Ñĥ"
      ],
      [
        "am",
        "il"
      ],
      [
        "Ð»",
        "Ð°"
      ],
      [
        "Ġl",
        "ike"
      ],
      [
        "Ġg",
        "et"
      ],
      [
        "s",
        "k"
      ],
      [
        "Ġb",
        "u"
      ],
      [
        "un",
        "ction"
      ],
      [
        "ad",
        "a"
      ],
      [
        "Ġsy",
        "stem"
      ],
      [
        "--",
        "--"
      ],
      [
        "Ġch",
        "ild"
      ],
      [
        "Ġc",
        "ar"
      ],
      [
        "it",
        "ed"
      ],
      [
        "ra",
        "ct"
      ],
      [
        "en",
        "e"
      ],
      [
        "Ġbet",
        "ween"
      ],
      [
        "ch",
        "n"
      ],
      [
        "ãģ",
        "ĭ"
      ],
      [
        "Ġs",
        "m"
      ],
      [
        "Ġs",
        "he"
      ],
      [
        "t",
        "a"
      ],
      [
        "Ð½",
        "Ð¾"
      ],
      [
        "h",
        "r"
      ],
      [
        "am",
        "p"
      ],
      [
        "a",
        "ir"
      ],
      [
        "Ġwh",
        "ere"
      ],
      [
        "Ġd",
        "et"
      ],
      [
        "Ġman",
        "y"
      ],
      [
        "2",
        "5"
      ],
      [
        "u",
        "es"
      ],
      [
        "Ġ",
        "ed"
      ],
      [
        "Ġ",
        "."
      ],
      [
        "er",
        "g"
      ],
      [
        "Ġp",
        "at"
      ],
      [
        "ãĤ",
        "Ĭ"
      ],
      [
        "Ġde",
        "velop"
      ],
      [
        "el",
        "s"
      ],
      [
        "Ġ",
        "||"
      ],
      [
        "Ð½",
        "Ñĭ"
      ],
      [
        "Ġd",
        "ist"
      ],
      [
        "Ð¾Ð",
        "¹"
      ],
      [
        "r",
        "on"
      ],
      [
        "Ð»",
        "Ð¸"
      ],
      [
        "Ðµ",
        "ÑĤ"
      ],
      [
        "Ġw",
        "ell"
      ],
      [
        "ear",
        "ch"
      ],
      [
        "Ġs",
        "im"
      ],
      [
        "Ð¾Ð³",
        "Ð¾"
      ],
      [
        "20",
        "2"
      ],
      [
        "a",
        "x"
      ],
      [
        "Ġa",
        "fter"
      ],
      [
        "y",
        "p"
      ],
      [
        "is",
        "ch"
      ],
      [
        "Ġs",
        "ign"
      ],
      [
        "19",
        "7"
      ],
      [
        "Ġres",
        "ult"
      ],
      [
        "Ġk",
        "e"
      ],
      [
        "Ġm",
        "y"
      ],
      [
        "Ġc",
        "o"
      ],
      [
        "Ġ",
        ","
      ],
      [
        "ra",
        "ph"
      ],
      [
        "em",
        "b"
      ],
      [
        "ut",
        "e"
      ],
      [
        "id",
        "er"
      ],
      [
        "a",
        "w"
      ],
      [
        "=",
        "="
      ],
      [
        "ĠÂ",
        "«"
      ],
      [
        "Ġcon",
        "st"
      ],
      [
        "Ġc",
        "ould"
      ],
      [
        "Ġc",
        "ent"
      ],
      [
        "at",
        "ure"
      ],
      [
        "Ġex",
        "t"
      ],
      [
        "Ġl",
        "oc"
      ],
      [
        "ãĤ",
        "¹"
      ],
      [
        "Ð²",
        "Ð°"
      ],
      [
        "ãĤ",
        "Ĥ"
      ],
      [
        "ess",
        "ion"
      ],
      [
        "Ã¼",
        "r"
      ],
      [
        "Ġgen",
        "er"
      ],
      [
        "u",
        "ro"
      ],
      [
        "Ġm",
        "in"
      ],
      [
        "r",
        "al"
      ],
      [
        "Ġp",
        "ublic"
      ],
      [
        "Ġsh",
        "ould"
      ],
      [
        "Ðº",
        "Ð°"
      ],
      [
        "i",
        "ous"
      ],
      [
        "an",
        "y"
      ],
      [
        "Ġth",
        "en"
      ],
      [
        "Ġp",
        "or"
      ],
      [
        "å",
        "ľ"
      ],
      [
        "Ġe",
        "ver"
      ],
      [
        "en",
        "g"
      ],
      [
        "e",
        "ver"
      ],
      [
        "Ġ$",
        "\\"
      ],
      [
        "Ġen",
        "d"
      ],
      [
        "oll",
        "ow"
      ],
      [
        "g",
        "et"
      ],
      [
        "Ġsu",
        "pp"
      ],
      [
        "ãĥ¼",
        "ãĥ"
      ],
      [
        "iel",
        "d"
      ],
      [
        "ar",
        "m"
      ],
      [
        "w",
        "ard"
      ],
      [
        "Ġm",
        "on"
      ],
      [
        "Ġ",
        "il"
      ],
      [
        "Ġim",
        "port"
      ],
      [
        "ur",
        "s"
      ],
      [
        "ĠW",
        "e"
      ],
      [
        "Ù",
        "ģ"
      ],
      [
        "am",
        "b"
      ],
      [
        "Ġyear",
        "s"
      ],
      [
        "ãĢĤ",
        "Ċ"
      ],
      [
        "Ġun",
        "a"
      ],
      [
        "Ġo",
        "p"
      ],
      [
        "ĠA",
        "s"
      ],
      [
        "?",
        "Ċ"
      ],
      [
        "ru",
        "ct"
      ],
      [
        "ur",
        "al"
      ],
      [
        "Ġl",
        "ong"
      ],
      [
        "ap",
        "p"
      ],
      [
        "Ġret",
        "urn"
      ],
      [
        "em",
        "ber"
      ],
      [
        "am",
        "ent"
      ],
      [
        "æ",
        "Ĺ"
      ],
      [
        "ãģ",
        "£"
      ],
      [
        "Ġc",
        "or"
      ],
      [
        "s",
        "c"
      ],
      [
        "Ø",
        "ª"
      ],
      [
        "(",
        ")"
      ],
      [
        "ag",
        "es"
      ],
      [
        "Ġpart",
        "ic"
      ],
      [
        "olog",
        "y"
      ],
      [
        "Ġhel",
        "p"
      ],
      [
        "d",
        "en"
      ],
      [
        "Ġ",
        "ÑĤ"
      ],
      [
        "Ġj",
        "ust"
      ],
      [
        "i",
        "que"
      ],
      [
        "å",
        "¹"
      ],
      [
        "Ġs",
        "ol"
      ],
      [
        "et",
        "s"
      ],
      [
        "ãĤ",
        "Į"
      ],
      [
        "å",
        "Ĭ"
      ],
      [
        "Ġp",
        "erson"
      ],
      [
        "Ðº",
        "Ð¸"
      ],
      [
        "å",
        "Ľ"
      ],
      [
        "ĠA",
        "mer"
      ],
      [
        "Ġs",
        "erv"
      ],
      [
        "ction",
        "s"
      ],
      [
        "ist",
        "s"
      ],
      [
        "Ġd",
        "ata"
      ],
      [
        "ĠM",
        "ar"
      ],
      [
        "t",
        "he"
      ],
      [
        "Ġm",
        "it"
      ],
      [
        "Ġar",
        "t"
      ],
      [
        "Ð¾",
        "Ñģ"
      ],
      [
        "oth",
        "er"
      ],
      [
        "Ġm",
        "ake"
      ],
      [
        "2",
        "4"
      ],
      [
        "Ġm",
        "et"
      ],
      [
        "y",
        "m"
      ],
      [
        "è",
        "¿"
      ],
      [
        "Ġv",
        "ari"
      ],
      [
        "v",
        "en"
      ],
      [
        "Ù",
        "ĩ"
      ],
      [
        "Ġf",
        "ound"
      ],
      [
        "Ø",
        "¯"
      ],
      [
        "Ã",
        "§"
      ],
      [
        "Ġin",
        "form"
      ],
      [
        "l",
        "o"
      ],
      [
        "5",
        "0"
      ],
      [
        "t",
        "il"
      ],
      [
        "Ġc",
        "re"
      ],
      [
        "Â",
        "»"
      ],
      [
        "Ġkn",
        "ow"
      ],
      [
        "a",
        "is"
      ],
      [
        "Ġex",
        "per"
      ],
      [
        "Ġsa",
        "id"
      ],
      [
        "ĠB",
        "e"
      ],
      [
        "Ġdiffer",
        "ent"
      ],
      [
        "19",
        "6"
      ],
      [
        ".",
        ","
      ],
      [
        "l",
        "ich"
      ],
      [
        "Ġre",
        "qu"
      ],
      [
        "Ð¸",
        "ÑĤ"
      ],
      [
        "ĠÐ",
        "¡"
      ],
      [
        "pl",
        "ic"
      ],
      [
        "in",
        "n"
      ],
      [
        "g",
        "er"
      ],
      [
        "ì",
        "Ĺ"
      ],
      [
        "Ġf",
        "il"
      ],
      [
        "l",
        "ed"
      ],
      [
        "im",
        "es"
      ],
      [
        "Ġf",
        "ollow"
      ],
      [
        "Ġeff",
        "ect"
      ],
      [
        "Ġd",
        "ire"
      ],
      [
        "ic",
        "es"
      ],
      [
        "Ðµ",
        "Ð½Ð¸"
      ],
      [
        "gr",
        "am"
      ],
      [
        "m",
        "ath"
      ],
      [
        "Ġc",
        "all"
      ],
      [
        "Ġb",
        "el"
      ],
      [
        "ãģ",
        "Ĩ"
      ],
      [
        "iv",
        "es"
      ],
      [
        "at",
        "s"
      ],
      [
        "00",
        "0"
      ],
      [
        "h",
        "ip"
      ],
      [
        "an",
        "k"
      ],
      [
        "W",
        "h"
      ],
      [
        "ĠÐ",
        "°"
      ],
      [
        "\"",
        ","
      ],
      [
        "o",
        "f"
      ],
      [
        "Ġin",
        "cre"
      ],
      [
        "od",
        "y"
      ],
      [
        "ĠN",
        "ew"
      ],
      [
        "Ġw",
        "ater"
      ],
      [
        "iz",
        "ed"
      ],
      [
        "te",
        "xt"
      ],
      [
        "Ġs",
        "k"
      ],
      [
        "p",
        "ut"
      ],
      [
        "at",
        "or"
      ],
      [
        "Ġh",
        "im"
      ],
      [
        "ĠF",
        "or"
      ],
      [
        "re",
        "f"
      ],
      [
        "Ġb",
        "ack"
      ],
      [
        "Ġ",
        "Q"
      ],
      [
        "ãĤ",
        "ī"
      ],
      [
        "Ġe",
        "ach"
      ],
      [
        "rou",
        "p"
      ],
      [
        "re",
        "t"
      ],
      [
        "Ù",
        "ĥ"
      ],
      [
        "ãĤ",
        "¤"
      ],
      [
        "con",
        "d"
      ],
      [
        "'",
        "t"
      ],
      [
        "ual",
        "ly"
      ],
      [
        "Ð°",
        "ÑĢ"
      ],
      [
        "Ġhe",
        "alth"
      ],
      [
        "as",
        "h"
      ],
      [
        "Ġc",
        "ap"
      ],
      [
        "Ġ",
        "/"
      ],
      [
        "Ġde",
        "c"
      ],
      [
        "Ñ",
        "ī"
      ],
      [
        "m",
        "s"
      ],
      [
        "en",
        "ces"
      ],
      [
        "o",
        "le"
      ],
      [
        "o",
        "id"
      ],
      [
        "Ġsh",
        "ow"
      ],
      [
        "m",
        "in"
      ],
      [
        "Ðµ",
        "Ð¼"
      ],
      [
        "ic",
        "an"
      ],
      [
        "æ",
        "ĺ"
      ],
      [
        "Ġev",
        "en"
      ],
      [
        "in",
        "ed"
      ],
      [
        "Ġc",
        "ur"
      ],
      [
        "l",
        "ine"
      ],
      [
        "c",
        "er"
      ],
      [
        "Ġex",
        "am"
      ],
      [
        "un",
        "e"
      ],
      [
        "Ġf",
        "amil"
      ],
      [
        "Ġt",
        "est"
      ],
      [
        "Ġs",
        "l"
      ],
      [
        "Ġbec",
        "ause"
      ],
      [
        "ion",
        "al"
      ],
      [
        "Ã©",
        "e"
      ],
      [
        "Ġpl",
        "ay"
      ],
      [
        "Ġp",
        "our"
      ],
      [
        "m",
        "an"
      ],
      [
        "as",
        "es"
      ],
      [
        "ä",
        "¼"
      ],
      [
        "t",
        "y"
      ],
      [
        "ak",
        "ing"
      ],
      [
        "ical",
        "ly"
      ],
      [
        "s",
        "ch"
      ],
      [
        "Ġc",
        "ount"
      ],
      [
        "in",
        "ce"
      ],
      [
        "Ġver",
        "y"
      ],
      [
        "Ġp",
        "op"
      ],
      [
        "v",
        "al"
      ],
      [
        "Ġt",
        "em"
      ],
      [
        "Ġf",
        "unction"
      ],
      [
        "ĠS",
        "p"
      ],
      [
        "i",
        "or"
      ],
      [
        "19",
        "4"
      ],
      [
        "ĠS",
        "h"
      ],
      [
        "r",
        "ent"
      ],
      [
        "Ġpar",
        "a"
      ],
      [
        "Ġh",
        "um"
      ],
      [
        "ãģ",
        "ĵ"
      ],
      [
        "ar",
        "ly"
      ],
      [
        "Ġf",
        "act"
      ],
      [
        "å",
        "Ń"
      ],
      [
        "Ġw",
        "ay"
      ],
      [
        "Ġd",
        "Ã©"
      ],
      [
        "Ù",
        "Ĥ"
      ],
      [
        "is",
        "ion"
      ],
      [
        "ĠÐ·",
        "Ð°"
      ],
      [
        "Ġs",
        "om"
      ],
      [
        "ich",
        "t"
      ],
      [
        "Ġg",
        "u"
      ],
      [
        "Ġres",
        "p"
      ],
      [
        "2",
        "3"
      ],
      [
        "ro",
        "l"
      ],
      [
        "ãĥ",
        "Ī"
      ],
      [
        "Ġh",
        "ist"
      ],
      [
        "Ġm",
        "uch"
      ],
      [
        "Ġever",
        "y"
      ],
      [
        "o",
        "x"
      ],
      [
        "v",
        "ed"
      ],
      [
        "ĠC",
        "l"
      ],
      [
        "Ġcon",
        "f"
      ],
      [
        "re",
        "ad"
      ],
      [
        "Ġg",
        "l"
      ],
      [
        "it",
        "er"
      ],
      [
        "t",
        "on"
      ],
      [
        "ĠE",
        "n"
      ],
      [
        "en",
        "n"
      ],
      [
        "ath",
        "er"
      ],
      [
        "-",
        "b"
      ],
      [
        "æ",
        "Ī"
      ],
      [
        "Ã",
        "Ł"
      ],
      [
        "ĠI",
        "nd"
      ],
      [
        "et",
        "y"
      ],
      [
        "g",
        "g"
      ],
      [
        "iv",
        "er"
      ],
      [
        "Ã",
        "±"
      ],
      [
        "Ġus",
        "ing"
      ],
      [
        "Ġbe",
        "ing"
      ],
      [
        "Ġl",
        "as"
      ],
      [
        "Ġpro",
        "cess"
      ],
      [
        "Ñ",
        "ĺ"
      ],
      [
        "Ġst",
        "at"
      ],
      [
        "Ġd",
        "a"
      ],
      [
        "Ġd",
        "r"
      ],
      [
        "Ġf",
        "ind"
      ],
      [
        "he",
        "s"
      ],
      [
        "it",
        "al"
      ],
      [
        "is",
        "k"
      ],
      [
        "Ð¾Ð",
        "º"
      ],
      [
        "Ġdis",
        "c"
      ],
      [
        "ivers",
        "ity"
      ],
      [
        "Ġd",
        "on"
      ],
      [
        "Ġc",
        "ell"
      ],
      [
        "Ð°",
        "ÑĤ"
      ],
      [
        "Ġ",
        "+"
      ],
      [
        "Ġst",
        "r"
      ],
      [
        "Ġdur",
        "ing"
      ],
      [
        "ri",
        "pt"
      ],
      [
        "é",
        "Ģ"
      ],
      [
        "ãĥ",
        "ĥ"
      ],
      [
        "e",
        "c"
      ],
      [
        "y",
        "n"
      ],
      [
        "2",
        "2"
      ],
      [
        "ĠC",
        "on"
      ],
      [
        "Ġs",
        "et"
      ],
      [
        "Ġp",
        "os"
      ],
      [
        "-",
        "s"
      ],
      [
        "Ġ",
        "Ùħ"
      ],
      [
        "Ġth",
        "ose"
      ],
      [
        "Ð¾",
        "ÑĤ"
      ],
      [
        "ro",
        "p"
      ],
      [
        "a",
        "ut"
      ],
      [
        "Ġ",
        "//"
      ],
      [
        "Ġag",
        "ain"
      ],
      [
        "Ġw",
        "orld"
      ],
      [
        "\"",
        ">"
      ],
      [
        "Ġstud",
        "y"
      ],
      [
        "ÃŃ",
        "a"
      ],
      [
        "ĠÐ",
        "Ĵ"
      ],
      [
        "Ġcomm",
        "un"
      ],
      [
        "ag",
        "n"
      ],
      [
        "Ġpro",
        "te"
      ],
      [
        "ra",
        "y"
      ],
      [
        "Ø",
        "¹"
      ],
      [
        "-",
        ">"
      ],
      [
        "k",
        "t"
      ],
      [
        "Ġs",
        "ame"
      ],
      [
        "Ðµ",
        "Ð´"
      ],
      [
        "eth",
        "od"
      ],
      [
        "}",
        "\\"
      ],
      [
        "Ġm",
        "ade"
      ],
      [
        "Ġd",
        "ans"
      ],
      [
        "at",
        "ch"
      ],
      [
        "Ġ",
        "X"
      ],
      [
        "ir",
        "d"
      ],
      [
        "pr",
        "es"
      ],
      [
        "v",
        "ers"
      ],
      [
        "ir",
        "on"
      ],
      [
        "Ð¼",
        "Ð¸"
      ],
      [
        "E",
        "x"
      ],
      [
        "over",
        "n"
      ],
      [
        "ÑĨ",
        "Ð¸"
      ],
      [
        "Ġb",
        "oth"
      ],
      [
        "Ġm",
        "us"
      ],
      [
        "Ġimport",
        "ant"
      ],
      [
        "Ġre",
        "ad"
      ],
      [
        "Ġo",
        "wn"
      ],
      [
        "Ġz",
        "u"
      ],
      [
        "t",
        "r"
      ],
      [
        "ac",
        "iÃ³n"
      ],
      [
        "iv",
        "id"
      ],
      [
        "Ġv",
        "an"
      ],
      [
        "am",
        "es"
      ],
      [
        "Ġl",
        "o"
      ],
      [
        "Ø",
        "¨"
      ],
      [
        "st",
        "e"
      ],
      [
        "at",
        "o"
      ],
      [
        "E",
        "R"
      ],
      [
        "is",
        "hed"
      ],
      [
        "Ġbe",
        "fore"
      ],
      [
        "c",
        "o"
      ],
      [
        "om",
        "en"
      ],
      [
        "ëĭ",
        "¤"
      ],
      [
        "Ġnum",
        "ber"
      ],
      [
        "19",
        "5"
      ],
      [
        "Ã",
        "¥"
      ],
      [
        "Ġin",
        "s"
      ],
      [
        "Ġr",
        "ight"
      ],
      [
        "Ġle",
        "ad"
      ],
      [
        "g",
        "o"
      ],
      [
        "ĠA",
        "nd"
      ],
      [
        "ãģ",
        "ı"
      ],
      [
        "ìĿ",
        "´"
      ],
      [
        "Ġh",
        "and"
      ],
      [
        "Ã¡",
        "s"
      ],
      [
        "Ġun",
        "e"
      ],
      [
        "å",
        "º"
      ],
      [
        "âĢĻ",
        "t"
      ],
      [
        "Ġe",
        "le"
      ],
      [
        "1",
        "00"
      ],
      [
        "ĠL",
        "a"
      ],
      [
        "Ġres",
        "earch"
      ],
      [
        "r",
        "ie"
      ],
      [
        "ĠA",
        "d"
      ],
      [
        "Ġte",
        "chn"
      ],
      [
        "w",
        "ay"
      ],
      [
        "r",
        "ight"
      ],
      [
        "Ġw",
        "ar"
      ],
      [
        "Ġl",
        "ife"
      ],
      [
        "Ñ",
        "Ĺ"
      ],
      [
        "ou",
        "se"
      ],
      [
        "4",
        "0"
      ],
      [
        "ä¸",
        "Ģ"
      ],
      [
        "ĠP",
        "l"
      ],
      [
        "Ġle",
        "arn"
      ],
      [
        "a",
        "i"
      ],
      [
        "ĠÐ",
        "ļ"
      ],
      [
        "Ä",
        "Ļ"
      ],
      [
        "ul",
        "ation"
      ],
      [
        "Ġn",
        "a"
      ],
      [
        "2",
        "6"
      ],
      [
        "}",
        "$"
      ],
      [
        "Ġle",
        "vel"
      ],
      [
        "Ġm",
        "ain"
      ],
      [
        "ur",
        "y"
      ],
      [
        "n",
        "ess"
      ],
      [
        "Ġ",
        "í"
      ],
      [
        "p",
        "end"
      ],
      [
        "ar",
        "ge"
      ],
      [
        "Ġp",
        "oss"
      ],
      [
        "Ġor",
        "gan"
      ],
      [
        "um",
        "ent"
      ],
      [
        "Ġpo",
        "int"
      ],
      [
        "Ġse",
        "e"
      ],
      [
        "n",
        "er"
      ],
      [
        "Ġpro",
        "f"
      ],
      [
        "Ġau",
        "f"
      ],
      [
        "äº",
        "º"
      ],
      [
        "ãģ¾",
        "ãģĻ"
      ],
      [
        "å",
        "°"
      ],
      [
        "ĠÐ",
        "Ł"
      ],
      [
        "2",
        "8"
      ],
      [
        "^",
        "{"
      ],
      [
        ":",
        ":"
      ],
      [
        "i",
        "um"
      ],
      [
        "2",
        "7"
      ],
      [
        "ë",
        "Ĭ"
      ],
      [
        "Ġl",
        "ook"
      ],
      [
        "Ġe",
        "qu"
      ],
      [
        "Ð¸",
        "Ð½"
      ],
      [
        "ot",
        "t"
      ],
      [
        "Ġ",
        "Ñĩ"
      ],
      [
        "ÑĢ",
        "Ñĥ"
      ],
      [
        "Ä",
        "ħ"
      ],
      [
        "Ġre",
        "al"
      ],
      [
        "n",
        "a"
      ],
      [
        "Ġs",
        "on"
      ],
      [
        "Ġn",
        "ame"
      ],
      [
        "Ġst",
        "art"
      ],
      [
        "i",
        "qu"
      ],
      [
        "å",
        "į"
      ],
      [
        "Ġwh",
        "ile"
      ],
      [
        "u",
        "x"
      ],
      [
        "are",
        "d"
      ],
      [
        "ĠT",
        "e"
      ],
      [
        "Ä",
        "į"
      ],
      [
        "o",
        "ot"
      ],
      [
        "ou",
        "n"
      ],
      [
        "Ġd",
        "as"
      ],
      [
        "Ġn",
        "ow"
      ],
      [
        "é",
        "ĩ"
      ],
      [
        "Ġis",
        "t"
      ],
      [
        "è",
        "¡"
      ],
      [
        "æ",
        "Ŀ"
      ],
      [
        "Ġ",
        "|"
      ],
      [
        "Ġd",
        "id"
      ],
      [
        "ĠS",
        "o"
      ],
      [
        "our",
        "ce"
      ],
      [
        "ic",
        "o"
      ],
      [
        "ot",
        "e"
      ],
      [
        "Ġdo",
        "es"
      ],
      [
        "å",
        "¸"
      ],
      [
        "iv",
        "en"
      ],
      [
        "ĠâĢ",
        "Ķ"
      ],
      [
        "Ñģ",
        "Ñı"
      ],
      [
        "ĠI",
        "f"
      ],
      [
        "a",
        "it"
      ],
      [
        "Ġg",
        "ood"
      ],
      [
        "Ġpro",
        "ble"
      ],
      [
        "Ġs",
        "i"
      ],
      [
        "Ġm",
        "ar"
      ],
      [
        "Ġan",
        "t"
      ],
      [
        "Ġact",
        "iv"
      ],
      [
        "ain",
        "s"
      ],
      [
        "ê",
        "³"
      ],
      [
        "Ã",
        "º"
      ],
      [
        "ent",
        "ial"
      ],
      [
        "19",
        "3"
      ],
      [
        "w",
        "ork"
      ],
      [
        "st",
        "and"
      ],
      [
        "2",
        "1"
      ],
      [
        "6",
        "0"
      ],
      [
        "e",
        "h"
      ],
      [
        "et",
        "er"
      ],
      [
        "Ã©",
        "n"
      ],
      [
        "p",
        "or"
      ],
      [
        "Ġinform",
        "ation"
      ],
      [
        "Ġth",
        "ree"
      ],
      [
        "Ġv",
        "is"
      ],
      [
        "ro",
        "ss"
      ],
      [
        "ĠP",
        "h"
      ],
      [
        "Ġd",
        "own"
      ],
      [
        "Ġpro",
        "gram"
      ],
      [
        "æ",
        "ī"
      ],
      [
        "Ġsm",
        "all"
      ],
      [
        "Ñģ",
        "ÑĮ"
      ],
      [
        "ĠH",
        "ow"
      ],
      [
        "or",
        "th"
      ],
      [
        "so",
        "ci"
      ],
      [
        "ĠThe",
        "y"
      ],
      [
        "m",
        "en"
      ],
      [
        "Ã",
        "ł"
      ],
      [
        "Ġcon",
        "d"
      ],
      [
        "Ġchild",
        "ren"
      ],
      [
        "og",
        "raph"
      ],
      [
        "Ġn",
        "on"
      ],
      [
        "al",
        "k"
      ],
      [
        "Ġf",
        "in"
      ],
      [
        "ãģ",
        "į"
      ],
      [
        "b",
        "re"
      ],
      [
        "Ġ",
        "ÙĪ"
      ],
      [
        "ëĬ",
        "Ķ"
      ],
      [
        "ell",
        "a"
      ],
      [
        "Ġp",
        "ass"
      ],
      [
        "Ġcont",
        "in"
      ],
      [
        "an",
        "e"
      ],
      [
        "act",
        "er"
      ],
      [
        "r",
        "ist"
      ],
      [
        "2",
        "9"
      ],
      [
        "ç",
        "»"
      ],
      [
        "it",
        "ions"
      ],
      [
        "Ġb",
        "est"
      ],
      [
        "ĠE",
        "l"
      ],
      [
        "v",
        "es"
      ],
      [
        "ra",
        "in"
      ],
      [
        "iv",
        "ing"
      ],
      [
        "ĠÐ¿",
        "ÑĢ"
      ],
      [
        "Ġt",
        "erm"
      ],
      [
        "as",
        "on"
      ],
      [
        "Ġdes",
        "c"
      ],
      [
        "ĠO",
        "r"
      ],
      [
        "å",
        "Ĩ"
      ],
      [
        "ci",
        "a"
      ],
      [
        "Ġj",
        "e"
      ],
      [
        "Ġpres",
        "ent"
      ],
      [
        "ĠI",
        "s"
      ],
      [
        "Ġex",
        "pl"
      ],
      [
        "Ġsch",
        "ool"
      ],
      [
        "Ġf",
        "Ã¼r"
      ],
      [
        "ci",
        "es"
      ],
      [
        "ou",
        "th"
      ],
      [
        "Ġsupp",
        "ort"
      ],
      [
        "id",
        "es"
      ],
      [
        "Ġcons",
        "ider"
      ],
      [
        "Ġf",
        "r"
      ],
      [
        "Ġv",
        "ers"
      ],
      [
        "Ġ",
        "@"
      ],
      [
        "âĢ",
        "ľ"
      ],
      [
        "v",
        "iew"
      ],
      [
        "ire",
        "d"
      ],
      [
        "ant",
        "e"
      ],
      [
        "as",
        "k"
      ],
      [
        "Ġim",
        "p"
      ],
      [
        "Ġo",
        "cc"
      ],
      [
        "Ã¶",
        "r"
      ],
      [
        "ãĥ",
        "«"
      ],
      [
        "Ġan",
        "al"
      ],
      [
        "iz",
        "ation"
      ],
      [
        "ĉĉ",
        "ĉĉ"
      ],
      [
        "Ġb",
        "re"
      ],
      [
        "er",
        "a"
      ],
      [
        "Ø",
        "³"
      ],
      [
        "ra",
        "c"
      ],
      [
        "Ġr",
        "est"
      ],
      [
        "or",
        "g"
      ],
      [
        "Ġc",
        "are"
      ],
      [
        "i",
        "ents"
      ],
      [
        "è",
        "¦"
      ],
      [
        "Ġd",
        "ay"
      ],
      [
        "Ġc",
        "our"
      ],
      [
        "I",
        "N"
      ],
      [
        "Ġg",
        "row"
      ],
      [
        "Ġdes",
        "ign"
      ],
      [
        "u",
        "f"
      ],
      [
        "w",
        "h"
      ],
      [
        "v",
        "iron"
      ],
      [
        "c",
        "ol"
      ],
      [
        "ãģĹ",
        "ãģ¦"
      ],
      [
        "l",
        "t"
      ],
      [
        "l",
        "er"
      ],
      [
        "ĠY",
        "ou"
      ],
      [
        "Ã",
        "£"
      ],
      [
        "I",
        "t"
      ],
      [
        "ĠÐ",
        "ľ"
      ],
      [
        "l",
        "ish"
      ],
      [
        "Ġpr",
        "im"
      ],
      [
        "å",
        "¾"
      ],
      [
        "ÑģÐº",
        "Ð¸"
      ],
      [
        "a",
        "f"
      ],
      [
        "b",
        "s"
      ],
      [
        "Ð¾Ð",
        "±"
      ],
      [
        "Ġt",
        "reat"
      ],
      [
        "in",
        "o"
      ],
      [
        "Ġs",
        "it"
      ],
      [
        "å",
        "¼"
      ],
      [
        "Ġre",
        "port"
      ],
      [
        "Ġv",
        "ol"
      ],
      [
        "Ġdire",
        "ct"
      ],
      [
        "ĠE",
        "x"
      ],
      [
        "Ġl",
        "ist"
      ],
      [
        "ãģ",
        "ķ"
      ],
      [
        "ãģ",
        "Ĥ"
      ],
      [
        "Ġm",
        "ov"
      ],
      [
        "Ð½",
        "Ñı"
      ],
      [
        "å",
        "Į"
      ],
      [
        "Ġ",
        "ÑĢÐ°"
      ],
      [
        "Ġre",
        "f"
      ],
      [
        "c",
        "ul"
      ],
      [
        "p",
        "o"
      ],
      [
        "-",
        "f"
      ],
      [
        "Ä",
        "Ľ"
      ],
      [
        "(",
        "\""
      ],
      [
        "id",
        "a"
      ],
      [
        "ä",
        "¹"
      ],
      [
        "Ġ",
        "_"
      ],
      [
        "O",
        "N"
      ],
      [
        "z",
        "a"
      ],
      [
        "ĠP",
        "ar"
      ],
      [
        "Ġqu",
        "i"
      ],
      [
        "ãĤ",
        "¯"
      ],
      [
        "Ġt",
        "ake"
      ],
      [
        "Ðµ",
        "Ð¹"
      ],
      [
        "h",
        "or"
      ],
      [
        "al",
        "ity"
      ],
      [
        "Ġse",
        "cond"
      ],
      [
        "ĠB",
        "l"
      ],
      [
        "ĠP",
        "r"
      ],
      [
        "t",
        "ain"
      ],
      [
        "ĠC",
        "ol"
      ],
      [
        "8",
        "0"
      ],
      [
        "Ġ",
        "ÑĢ"
      ],
      [
        "Ð»",
        "ÑĮ"
      ],
      [
        "ab",
        "el"
      ],
      [
        "en",
        "er"
      ],
      [
        "æ",
        "Ģ"
      ],
      [
        "le",
        "x"
      ],
      [
        "Ġr",
        "Ã©"
      ],
      [
        "s",
        "h"
      ],
      [
        "Ġa",
        "ff"
      ],
      [
        "å",
        "·"
      ],
      [
        "ĠO",
        "n"
      ],
      [
        "ĠUn",
        "iversity"
      ],
      [
        "Ġw",
        "ord"
      ],
      [
        "ĠÐ³",
        "Ð¾Ð´"
      ],
      [
        "j",
        "e"
      ],
      [
        "or",
        "es"
      ],
      [
        "Ġa",
        "round"
      ],
      [
        "P",
        "ro"
      ],
      [
        "m",
        "ed"
      ],
      [
        "Ã¡",
        "n"
      ],
      [
        "d",
        "ay"
      ],
      [
        "ãĤ",
        "ĵ"
      ],
      [
        "al",
        "t"
      ],
      [
        "ç",
        "Ľ"
      ],
      [
        "s",
        "on"
      ],
      [
        "ci",
        "ent"
      ],
      [
        "è",
        "Ģ"
      ],
      [
        "Ġo",
        "per"
      ],
      [
        "Ġp",
        "ost"
      ],
      [
        ".",
        "âĢĿ"
      ],
      [
        "ä¸",
        "Ń"
      ],
      [
        "en",
        "se"
      ],
      [
        "ra",
        "g"
      ],
      [
        "Ġpl",
        "ace"
      ],
      [
        "oh",
        "n"
      ],
      [
        "ĠR",
        "es"
      ],
      [
        "Ġh",
        "ab"
      ],
      [
        "Ġ",
        "ÑģÑĤ"
      ],
      [
        "ak",
        "es"
      ],
      [
        "al",
        "es"
      ],
      [
        "å¹",
        "´"
      ],
      [
        "Ã£",
        "o"
      ],
      [
        "at",
        "ic"
      ],
      [
        "s",
        "et"
      ],
      [
        "Ġc",
        "r"
      ],
      [
        "Ġre",
        "du"
      ],
      [
        "19",
        "2"
      ],
      [
        "Ġm",
        "en"
      ],
      [
        "Ġw",
        "rit"
      ],
      [
        "Ġapp",
        "ro"
      ],
      [
        "le",
        "g"
      ],
      [
        "ãĥ",
        "©"
      ],
      [
        "iv",
        "ed"
      ],
      [
        "w",
        "w"
      ],
      [
        "ĠE",
        "ng"
      ],
      [
        "Ġm",
        "il"
      ],
      [
        "Ð²",
        "Ð¸"
      ],
      [
        "Ġp",
        "ot"
      ],
      [
        "å",
        "ĩ"
      ],
      [
        "f",
        "ic"
      ],
      [
        "Ġdis",
        "e"
      ],
      [
        "Ġstud",
        "ents"
      ],
      [
        "Ġf",
        "ood"
      ],
      [
        "Ġp",
        "ower"
      ],
      [
        "z",
        "y"
      ],
      [
        "ĠA",
        "m"
      ],
      [
        "Ã",
        "ª"
      ],
      [
        "C",
        "on"
      ],
      [
        "Ġqu",
        "est"
      ],
      [
        "ãĥ",
        "ª"
      ],
      [
        "l",
        "u"
      ],
      [
        ".",
        "\"Ċ"
      ],
      [
        "Ġch",
        "ar"
      ],
      [
        ".",
        "S"
      ],
      [
        "Ä",
        "ĥ"
      ],
      [
        "cc",
        "ess"
      ],
      [
        "Ġm",
        "at"
      ],
      [
        "and",
        "o"
      ],
      [
        "Ġst",
        "ate"
      ],
      [
        "erg",
        "y"
      ],
      [
        "Å",
        "¡"
      ],
      [
        "å¤",
        "§"
      ],
      [
        ":",
        "//"
      ],
      [
        "c",
        "a"
      ],
      [
        "æ",
        "°"
      ],
      [
        "Ġt",
        "ype"
      ],
      [
        "is",
        "ter"
      ],
      [
        "Ġc",
        "le"
      ],
      [
        "C",
        "h"
      ],
      [
        "im",
        "ent"
      ],
      [
        "Ġe",
        "lect"
      ],
      [
        "iss",
        "ion"
      ],
      [
        "ĠB",
        "ut"
      ],
      [
        "r",
        "ation"
      ],
      [
        "if",
        "ied"
      ],
      [
        "Ġl",
        "ess"
      ],
      [
        "Th",
        "is"
      ],
      [
        "19",
        "1"
      ],
      [
        "r",
        "or"
      ],
      [
        "Ġal",
        "s"
      ],
      [
        "Ġm",
        "ust"
      ],
      [
        "b",
        "y"
      ],
      [
        "Ġg",
        "overn"
      ],
      [
        ".",
        "com"
      ],
      [
        "ro",
        "s"
      ],
      [
        "Ġinclud",
        "ing"
      ],
      [
        "Ġth",
        "ough"
      ],
      [
        "Ġor",
        "ig"
      ],
      [
        "Ġbe",
        "h"
      ],
      [
        "(",
        ");Ċ"
      ],
      [
        "Ġc",
        "al"
      ],
      [
        "ìĹ",
        "Ĳ"
      ],
      [
        "c",
        "al"
      ],
      [
        "Ġspe",
        "c"
      ],
      [
        "Ġbu",
        "ild"
      ],
      [
        "A",
        "R"
      ],
      [
        "Ġper",
        "form"
      ],
      [
        "Ð¾",
        "ÑģÑĤ"
      ],
      [
        "ì",
        "Ħ"
      ],
      [
        "u",
        "er"
      ],
      [
        "ate",
        "g"
      ],
      [
        "an",
        "a"
      ],
      [
        "æ",
        "ķ"
      ],
      [
        "us",
        "e"
      ],
      [
        "ĉ",
        "Ċ"
      ],
      [
        "Ġst",
        "and"
      ],
      [
        "ĠAmer",
        "ican"
      ],
      [
        "Ð",
        "¡"
      ],
      [
        "9",
        "0"
      ],
      [
        "7",
        "0"
      ],
      [
        "Ġw",
        "ant"
      ],
      [
        "i",
        "od"
      ],
      [
        "ĠTh",
        "ere"
      ],
      [
        "Ġ",
        "}"
      ],
      [
        "re",
        "m"
      ],
      [
        "re",
        "g"
      ],
      [
        "u",
        "le"
      ],
      [
        "iv",
        "ely"
      ],
      [
        "id",
        "o"
      ],
      [
        "Ġ",
        "ident"
      ],
      [
        "ê",
        "°"
      ],
      [
        "Ġm",
        "ark"
      ],
      [
        "ru",
        "e"
      ],
      [
        "(",
        "\\"
      ],
      [
        "å",
        "¯"
      ],
      [
        "Ġof",
        "ten"
      ],
      [
        "in",
        "ation"
      ],
      [
        "ri",
        "es"
      ],
      [
        "Ġhum",
        "an"
      ],
      [
        "Ġl",
        "and"
      ],
      [
        "ater",
        "ial"
      ],
      [
        "l",
        "a"
      ],
      [
        "con",
        "om"
      ],
      [
        "Ġall",
        "ow"
      ],
      [
        "n",
        "al"
      ],
      [
        "ãĤ",
        "¢"
      ],
      [
        "Ð»",
        "Ñı"
      ],
      [
        "id",
        "ad"
      ],
      [
        "ì",
        "ł"
      ],
      [
        "-",
        "t"
      ],
      [
        "Ġg",
        "reat"
      ],
      [
        "A",
        "T"
      ],
      [
        "b",
        "eg"
      ],
      [
        "Ġst",
        "ill"
      ],
      [
        "Ġm",
        "ethod"
      ],
      [
        ",",
        "\""
      ],
      [
        "ãģ",
        "Ĭ"
      ],
      [
        "Ġg",
        "roup"
      ],
      [
        "Ġs",
        "elf"
      ],
      [
        "ion",
        "e"
      ],
      [
        "Ġc",
        "e"
      ],
      [
        "le",
        "v"
      ],
      [
        "ĠE",
        "uro"
      ],
      [
        "Ġb",
        "o"
      ],
      [
        "E",
        "S"
      ],
      [
        "ĠC",
        "ar"
      ],
      [
        "Ġb",
        "ody"
      ],
      [
        "Ġf",
        "inal"
      ],
      [
        "Ġo",
        "pt"
      ],
      [
        "{",
        "e"
      ],
      [
        "å",
        "±"
      ],
      [
        "çĶ",
        "¨"
      ],
      [
        "Ġde",
        "v"
      ],
      [
        "isch",
        "en"
      ],
      [
        "Ġan",
        "n"
      ],
      [
        "u",
        "i"
      ],
      [
        "Ġc",
        "ase"
      ],
      [
        "am",
        "s"
      ],
      [
        "ì",
        "ŀ"
      ],
      [
        "Ġval",
        "ue"
      ],
      [
        "3",
        "5"
      ],
      [
        "Ġkn",
        "own"
      ],
      [
        "Ġth",
        "ink"
      ],
      [
        "che",
        "s"
      ],
      [
        "Ġg",
        "e"
      ],
      [
        "Ġ",
        "ide"
      ],
      [
        "Ġt",
        "er"
      ],
      [
        "in",
        "ess"
      ],
      [
        "y",
        "l"
      ],
      [
        "Ġprodu",
        "ct"
      ],
      [
        "Ġb",
        "as"
      ],
      [
        "ot",
        "s"
      ],
      [
        "it",
        "ive"
      ],
      [
        "ĠE",
        "r"
      ],
      [
        "ãģ§",
        "ãģĻ"
      ],
      [
        "ç",
        "ī"
      ],
      [
        "b",
        "r"
      ],
      [
        "ĠT",
        "r"
      ],
      [
        "Ġad",
        "v"
      ],
      [
        "Ġle",
        "g"
      ],
      [
        "el",
        "le"
      ],
      [
        "op",
        "h"
      ],
      [
        "Ðµ",
        "Ðº"
      ],
      [
        "è",
        "®"
      ],
      [
        "st",
        "r"
      ],
      [
        "y",
        "ch"
      ],
      [
        "if",
        "y"
      ],
      [
        "ãģĹ",
        "ãģŁ"
      ],
      [
        "Ġor",
        "der"
      ],
      [
        "æĹ",
        "¥"
      ],
      [
        "viron",
        "ment"
      ],
      [
        "ĠM",
        "ed"
      ],
      [
        "ig",
        "en"
      ],
      [
        "at",
        "ely"
      ],
      [
        "st",
        "er"
      ],
      [
        "Ñ",
        "ĳ"
      ],
      [
        "D",
        "e"
      ],
      [
        "i",
        "os"
      ],
      [
        "Ġw",
        "ur"
      ],
      [
        "k",
        "a"
      ],
      [
        "ĠC",
        "an"
      ],
      [
        "Ġcom",
        "o"
      ],
      [
        "beg",
        "in"
      ],
      [
        "ĠÐ",
        "Ĳ"
      ],
      [
        "Ġg",
        "re"
      ],
      [
        "----",
        "----"
      ],
      [
        "ab",
        "ility"
      ],
      [
        "W",
        "e"
      ],
      [
        "ĠF",
        "ran"
      ],
      [
        "f",
        "ig"
      ],
      [
        "ìĿ",
        "Ħ"
      ],
      [
        "Ġcall",
        "ed"
      ],
      [
        "Ġch",
        "ang"
      ],
      [
        "il",
        "y"
      ],
      [
        "f",
        "e"
      ],
      [
        "C",
        "om"
      ],
      [
        "Å",
        "¾"
      ],
      [
        "Ġt",
        "yp"
      ],
      [
        "ĠA",
        "ll"
      ],
      [
        "i",
        "et"
      ],
      [
        "..",
        "."
      ],
      [
        "A",
        "r"
      ],
      [
        "Ã©",
        "r"
      ],
      [
        "Ð",
        "Ł"
      ],
      [
        "-",
        "d"
      ],
      [
        "Ð°",
        "Ð²"
      ],
      [
        "Ġso",
        "cial"
      ],
      [
        "l",
        "ing"
      ],
      [
        "Ġs",
        "ich"
      ],
      [
        "E",
        "n"
      ],
      [
        "Ġind",
        "ivid"
      ],
      [
        "}",
        "}"
      ],
      [
        "am",
        "m"
      ],
      [
        "Ġm",
        "aj"
      ],
      [
        "Ġl",
        "arge"
      ],
      [
        "Ð¾Ð",
        "·"
      ],
      [
        "Ġa",
        "us"
      ],
      [
        "ur",
        "a"
      ],
      [
        "Ġen",
        "g"
      ],
      [
        "Ġin",
        "c"
      ],
      [
        "Ġs",
        "ing"
      ],
      [
        "-",
        "m"
      ],
      [
        "on",
        "es"
      ],
      [
        "l",
        "ess"
      ],
      [
        "ĠG",
        "r"
      ],
      [
        "ur",
        "ch"
      ],
      [
        "Ġexam",
        "ple"
      ],
      [
        "Ġcomm",
        "on"
      ],
      [
        "3",
        "3"
      ],
      [
        "íķ",
        "ĺ"
      ],
      [
        "ur",
        "g"
      ],
      [
        "b",
        "en"
      ],
      [
        "Ã©",
        "t"
      ],
      [
        "Ġwith",
        "out"
      ],
      [
        "Ġb",
        "r"
      ],
      [
        "å",
        "¿"
      ],
      [
        "ert",
        "ain"
      ],
      [
        "Ñĸ",
        "Ð²"
      ],
      [
        "m",
        "p"
      ],
      [
        "Ġen",
        "c"
      ],
      [
        "4",
        "5"
      ],
      [
        "Ġwith",
        "in"
      ],
      [
        "ãģ£",
        "ãģ¦"
      ],
      [
        "ir",
        "c"
      ],
      [
        "ĠU",
        "S"
      ],
      [
        "ĠB",
        "r"
      ],
      [
        "Ġb",
        "ook"
      ],
      [
        "er",
        "ing"
      ],
      [
        "ì",
        "§"
      ],
      [
        "åľ",
        "¨"
      ],
      [
        "el",
        "t"
      ],
      [
        "ĠÐ",
        "»"
      ],
      [
        "Ġc",
        "ult"
      ],
      [
        "an",
        "o"
      ],
      [
        "Ġm",
        "ill"
      ],
      [
        "ent",
        "ly"
      ],
      [
        "p",
        "art"
      ],
      [
        "Ġl",
        "im"
      ],
      [
        "ord",
        "ing"
      ],
      [
        "Ġpro",
        "per"
      ],
      [
        "pres",
        "ent"
      ],
      [
        "Ġn",
        "at"
      ],
      [
        "Ġl",
        "ast"
      ],
      [
        "!",
        "Ċ"
      ],
      [
        "Ġu",
        "m"
      ],
      [
        "ang",
        "u"
      ],
      [
        "Ð°",
        "Ð½Ð¸"
      ],
      [
        "è",
        "¯"
      ],
      [
        "Å",
        "¼"
      ],
      [
        "Ġloc",
        "al"
      ],
      [
        "I",
        "I"
      ],
      [
        "Ġsign",
        "ific"
      ],
      [
        "Ġcont",
        "rol"
      ],
      [
        "our",
        "s"
      ],
      [
        "y",
        "d"
      ],
      [
        "å",
        "ĵ"
      ],
      [
        "ri",
        "ed"
      ],
      [
        "Ġf",
        "ew"
      ],
      [
        "ĠCom",
        "m"
      ],
      [
        "ĠA",
        "b"
      ],
      [
        "A",
        "S"
      ],
      [
        "Ðµ",
        "ÑģÑĤ"
      ],
      [
        "Ġ",
        "#"
      ],
      [
        "Ðµ",
        "Ð²"
      ],
      [
        "Ġh",
        "ome"
      ],
      [
        "A",
        "l"
      ],
      [
        "er",
        "o"
      ],
      [
        "Ġto",
        "p"
      ],
      [
        "Ġr",
        "un"
      ],
      [
        "u",
        "ed"
      ],
      [
        "av",
        "ing"
      ],
      [
        "st",
        "it"
      ],
      [
        "Ġb",
        "us"
      ],
      [
        "Ġe",
        "ine"
      ],
      [
        "ĠV",
        "er"
      ],
      [
        "Ġv",
        "o"
      ],
      [
        "l",
        "ished"
      ],
      [
        "Ġap",
        "pe"
      ],
      [
        "Ġp",
        "as"
      ],
      [
        "Ġse",
        "ver"
      ],
      [
        "Ġe",
        "as"
      ],
      [
        "our",
        "ces"
      ],
      [
        "c",
        "ur"
      ],
      [
        "Å",
        "Ļ"
      ],
      [
        "Ġc",
        "aus"
      ],
      [
        "é",
        "ģ"
      ],
      [
        "ĠG",
        "e"
      ],
      [
        "ĠUn",
        "ited"
      ],
      [
        "Ġed",
        "uc"
      ],
      [
        "ë",
        "¡"
      ],
      [
        "æľ",
        "ī"
      ],
      [
        "Ġme",
        "as"
      ],
      [
        "ĠÐ",
        "ĳ"
      ],
      [
        "s",
        "elf"
      ],
      [
        "/",
        "Ċ"
      ],
      [
        "Ġh",
        "ere"
      ],
      [
        "il",
        "le"
      ],
      [
        "Ġop",
        "en"
      ],
      [
        "æ",
        "ł"
      ],
      [
        "Ġex",
        "p"
      ],
      [
        "Ġl",
        "ine"
      ],
      [
        "e",
        "y"
      ],
      [
        "ĠC",
        "ent"
      ],
      [
        "Ġbe",
        "g"
      ],
      [
        "pl",
        "es"
      ],
      [
        "Ġf",
        "re"
      ],
      [
        "Ġagain",
        "st"
      ],
      [
        "Ġm",
        "ight"
      ],
      [
        "7",
        "5"
      ],
      [
        "_",
        "_"
      ],
      [
        "Ġpol",
        "it"
      ],
      [
        "ve",
        "c"
      ],
      [
        "Ġpl",
        "us"
      ],
      [
        "I",
        "D"
      ],
      [
        "Ġo",
        "ld"
      ],
      [
        "f",
        "or"
      ],
      [
        "is",
        "on"
      ],
      [
        "ãģ",
        "ł"
      ],
      [
        "ç",
        "§"
      ],
      [
        "ìĿ",
        "ĺ"
      ],
      [
        "æĺ",
        "¯"
      ],
      [
        "m",
        "l"
      ],
      [
        "om",
        "s"
      ],
      [
        "Ġto",
        "t"
      ],
      [
        "in",
        "ing"
      ],
      [
        "Ġp",
        "ract"
      ],
      [
        "Ġcom",
        "e"
      ],
      [
        "n",
        "o"
      ],
      [
        "Ġhe",
        "ad"
      ],
      [
        "S",
        "e"
      ],
      [
        "Ġ",
        "ÑĦ"
      ],
      [
        "z",
        "en"
      ],
      [
        "d",
        "a"
      ],
      [
        "Ã¨",
        "re"
      ],
      [
        "å",
        "½"
      ],
      [
        "6",
        "4"
      ],
      [
        "ro",
        "ll"
      ],
      [
        "æ",
        "Ĭ"
      ],
      [
        "in",
        "ci"
      ],
      [
        "Ġw",
        "er"
      ],
      [
        "it",
        "Ã©"
      ],
      [
        "6",
        "5"
      ],
      [
        "Ġf",
        "our"
      ],
      [
        "it",
        "or"
      ],
      [
        "ĠN",
        "e"
      ],
      [
        "v",
        "ol"
      ],
      [
        "Ø",
        "Ń"
      ],
      [
        "ci",
        "ence"
      ],
      [
        "Ġr",
        "isk"
      ],
      [
        "ad",
        "os"
      ],
      [
        "ĠP",
        "ol"
      ],
      [
        "Ġare",
        "a"
      ],
      [
        "Ġm",
        "ult"
      ],
      [
        "ĠÐ¾",
        "Ð±"
      ],
      [
        "Ã¨",
        "s"
      ],
      [
        "Ġan",
        "other"
      ],
      [
        "Ġfollow",
        "ing"
      ],
      [
        "le",
        "y"
      ],
      [
        "7",
        "8"
      ],
      [
        "w",
        "ays"
      ],
      [
        "A",
        "s"
      ],
      [
        "b",
        "all"
      ],
      [
        "y",
        "le"
      ],
      [
        "Ġc",
        "ost"
      ],
      [
        "im",
        "port"
      ],
      [
        "c",
        "ing"
      ],
      [
        "ar",
        "ch"
      ],
      [
        "Å",
        "Ľ"
      ],
      [
        "Ġch",
        "ange"
      ],
      [
        "end",
        "s"
      ],
      [
        "**",
        "**"
      ],
      [
        "Ġis",
        "s"
      ],
      [
        "ed",
        "er"
      ],
      [
        "ic",
        "le"
      ],
      [
        "ĠF",
        "r"
      ],
      [
        "y",
        "stem"
      ],
      [
        "Ġl",
        "ight"
      ],
      [
        "ab",
        "or"
      ],
      [
        "op",
        "e"
      ],
      [
        "id",
        "s"
      ],
      [
        "A",
        "n"
      ],
      [
        "Ġindivid",
        "ual"
      ],
      [
        "ĠS",
        "he"
      ],
      [
        "ãĤ",
        "Ī"
      ],
      [
        "Ġmod",
        "el"
      ],
      [
        "olog",
        "ical"
      ],
      [
        "ĠÐ¾",
        "ÑĤ"
      ],
      [
        "Ġpro",
        "m"
      ],
      [
        "ĠA",
        "t"
      ],
      [
        "es",
        "ch"
      ],
      [
        "o",
        "ch"
      ],
      [
        ")",
        "$"
      ],
      [
        "Ġ",
        "ãĥ"
      ],
      [
        "Ġph",
        "ys"
      ],
      [
        "-",
        "l"
      ],
      [
        "9",
        "5"
      ],
      [
        "Ġim",
        "pro"
      ],
      [
        "f",
        "l"
      ],
      [
        "s",
        "er"
      ],
      [
        "Ġ",
        "ess"
      ],
      [
        "19",
        "0"
      ],
      [
        "_{",
        "\\"
      ],
      [
        "Re",
        "fer"
      ],
      [
        "ãģ",
        "ĳ"
      ],
      [
        "Ġl",
        "ink"
      ],
      [
        "i",
        "ence"
      ],
      [
        "ra",
        "w"
      ],
      [
        "k",
        "s"
      ],
      [
        "ĠÐ¿",
        "ÑĢÐ¸"
      ],
      [
        "Ġpro",
        "ject"
      ],
      [
        "n",
        "i"
      ],
      [
        "Ġf",
        "ac"
      ],
      [
        "Ġsy",
        "m"
      ],
      [
        "ĠThe",
        "se"
      ],
      [
        "Ġì",
        "Ŀ"
      ],
      [
        "Ġfamil",
        "y"
      ],
      [
        "Ġr",
        "ad"
      ],
      [
        "if",
        "t"
      ],
      [
        "Ġcur",
        "rent"
      ],
      [
        "Ġpr",
        "iv"
      ],
      [
        "ĠD",
        "ie"
      ],
      [
        "ĥ",
        "½"
      ],
      [
        "(",
        "'"
      ],
      [
        "Ġst",
        "ruct"
      ],
      [
        "Ġm",
        "aterial"
      ],
      [
        "le",
        "ment"
      ],
      [
        "Ġre",
        "ce"
      ],
      [
        "ur",
        "ing"
      ],
      [
        "æ",
        "³"
      ],
      [
        "Ġunder",
        "stand"
      ],
      [
        "ition",
        "al"
      ],
      [
        "]",
        "Ċ"
      ],
      [
        "v",
        "a"
      ],
      [
        "O",
        "R"
      ],
      [
        "is",
        "ed"
      ],
      [
        "çĶ",
        "Ł"
      ],
      [
        "Ġf",
        "ield"
      ],
      [
        "Ġw",
        "omen"
      ],
      [
        "ĠÐ",
        "µ"
      ],
      [
        "Ĥ",
        "¬"
      ],
      [
        "g",
        "l"
      ],
      [
        "i",
        "ans"
      ],
      [
        "Ġì",
        "ŀ"
      ],
      [
        "f",
        "ace"
      ],
      [
        "é",
        "Ļ"
      ],
      [
        "Ġinter",
        "est"
      ],
      [
        "C",
        "l"
      ],
      [
        "\\",
        "end"
      ],
      [
        "Ġtr",
        "ad"
      ],
      [
        "ĠF",
        "l"
      ],
      [
        "itt",
        "le"
      ],
      [
        "ĠÐ¿",
        "Ð¾"
      ],
      [
        "end",
        "er"
      ],
      [
        "le",
        "ction"
      ],
      [
        "s",
        "erv"
      ],
      [
        "Ġt",
        "urn"
      ],
      [
        "'",
        ","
      ],
      [
        "in",
        "ter"
      ],
      [
        "ain",
        "t"
      ],
      [
        "ĠHow",
        "ever"
      ],
      [
        "pr",
        "ess"
      ],
      [
        ".",
        "h"
      ],
      [
        "un",
        "t"
      ],
      [
        "E",
        "N"
      ],
      [
        "Ġb",
        "ro"
      ],
      [
        "Ġas",
        "soci"
      ],
      [
        "ĠM",
        "an"
      ],
      [
        "_",
        "t"
      ],
      [
        "ent",
        "ion"
      ],
      [
        "Ð¾Ð",
        "¿"
      ],
      [
        "Ñĸ",
        "Ð´"
      ],
      [
        "Ġd",
        "ue"
      ],
      [
        "w",
        "er"
      ],
      [
        "et",
        "a"
      ],
      [
        "h",
        "er"
      ],
      [
        "ard",
        "s"
      ],
      [
        "==",
        "=="
      ],
      [
        "Ġo",
        "pp"
      ],
      [
        "\\",
        "begin"
      ],
      [
        "pe",
        "cial"
      ],
      [
        "n",
        "ot"
      ],
      [
        "Ñģ",
        "Ð¸"
      ],
      [
        "cept",
        "ion"
      ],
      [
        "ail",
        "able"
      ],
      [
        "a",
        "ft"
      ],
      [
        "è",
        "ĩ"
      ],
      [
        "Ġpat",
        "ients"
      ],
      [
        "ĠI",
        "m"
      ],
      [
        "rib",
        "ut"
      ],
      [
        "du",
        "ct"
      ],
      [
        "ĠÐ",
        "ł"
      ],
      [
        "Ġs",
        "ince"
      ],
      [
        "h",
        "o"
      ],
      [
        "ĠJ",
        "ohn"
      ],
      [
        "ä",
        "¿"
      ],
      [
        "Ġan",
        "im"
      ],
      [
        "Ð½",
        "Ñĸ"
      ],
      [
        "th",
        "s"
      ],
      [
        "Ġen",
        "ergy"
      ],
      [
        "ys",
        "is"
      ],
      [
        "Ġdevelop",
        "ment"
      ],
      [
        "Ġte",
        "ach"
      ],
      [
        "Ġl",
        "ater"
      ],
      [
        "Ġl",
        "ow"
      ],
      [
        "ion",
        "es"
      ],
      [
        "ap",
        "t"
      ],
      [
        "è",
        "¨"
      ],
      [
        "sp",
        "an"
      ],
      [
        "3",
        "2"
      ],
      [
        "Ġper",
        "iod"
      ],
      [
        ".",
        "\""
      ],
      [
        "ãĥ",
        "»"
      ],
      [
        "Ã",
        "½"
      ],
      [
        "ric",
        "t"
      ],
      [
        "b",
        "l"
      ],
      [
        "Ġob",
        "ject"
      ],
      [
        "3",
        "4"
      ],
      [
        ".",
        "get"
      ],
      [
        "Ġin",
        "de"
      ],
      [
        "iv",
        "al"
      ],
      [
        "ĠØ",
        "¨"
      ],
      [
        "Ġmaj",
        "or"
      ],
      [
        "p",
        "on"
      ],
      [
        "n",
        "ing"
      ],
      [
        "#",
        "#"
      ],
      [
        "u",
        "el"
      ],
      [
        "Ġ",
        "</"
      ],
      [
        "Ġle",
        "t"
      ],
      [
        "}",
        "{"
      ],
      [
        "ä¸",
        "į"
      ],
      [
        "ĠN",
        "ational"
      ],
      [
        "Ġb",
        "ased"
      ],
      [
        "Ġp",
        "ub"
      ],
      [
        "Ġto",
        "o"
      ],
      [
        "U",
        "n"
      ],
      [
        "b",
        "ar"
      ],
      [
        "an",
        "ces"
      ],
      [
        "o",
        "int"
      ],
      [
        "Ġb",
        "i"
      ],
      [
        ",",
        "âĢĿ"
      ],
      [
        "Ġinclud",
        "e"
      ],
      [
        "as",
        "ter"
      ],
      [
        "th",
        "ers"
      ],
      [
        "Ġe",
        "arly"
      ],
      [
        "ĠÐ",
        "Ŀ"
      ],
      [
        "9",
        "9"
      ],
      [
        "ent",
        "e"
      ],
      [
        "ĠCh",
        "rist"
      ],
      [
        "æ",
        "Ń"
      ],
      [
        "ung",
        "en"
      ],
      [
        "Ð°Ð»",
        "ÑĮ"
      ],
      [
        "Ġbel",
        "ie"
      ],
      [
        "åĽ",
        "½"
      ],
      [
        "Ġcom",
        "b"
      ],
      [
        "ä¸",
        "Ĭ"
      ],
      [
        "Ñ",
        "į"
      ],
      [
        "ĠS",
        "u"
      ],
      [
        "ur",
        "ther"
      ],
      [
        "ic",
        "ro"
      ],
      [
        "com",
        "m"
      ],
      [
        "âĢ",
        "¦"
      ],
      [
        "ig",
        "e"
      ],
      [
        "ĠâĢ",
        "ĺ"
      ],
      [
        "ä¼",
        "ļ"
      ],
      [
        "-",
        "c"
      ],
      [
        "3",
        "8"
      ],
      [
        "tt",
        "p"
      ],
      [
        "Ġpl",
        "an"
      ],
      [
        "o",
        "ber"
      ],
      [
        "Ġresult",
        "s"
      ],
      [
        "re",
        "l"
      ],
      [
        "L",
        "e"
      ],
      [
        "ĠT",
        "o"
      ],
      [
        "Ġp",
        "ort"
      ],
      [
        "ãĥ³",
        "ãĥ"
      ],
      [
        "Ġs",
        "ay"
      ],
      [
        "Ġsever",
        "al"
      ],
      [
        "Ġm",
        "ot"
      ],
      [
        "um",
        "e"
      ],
      [
        "th",
        "is"
      ],
      [
        "Ġg",
        "iven"
      ],
      [
        "Ġcell",
        "s"
      ],
      [
        "3",
        "1"
      ],
      [
        "Ð¾Ð",
        "¶"
      ],
      [
        "Ġ",
        "ÑĤÐ°"
      ],
      [
        "L",
        "a"
      ],
      [
        "av",
        "a"
      ],
      [
        "Å",
        "ĳ"
      ],
      [
        "ĠG",
        "u"
      ],
      [
        "er",
        "c"
      ],
      [
        "Ġpartic",
        "ular"
      ],
      [
        "ĠSt",
        "ates"
      ],
      [
        "Ġc",
        "u"
      ],
      [
        "ad",
        "es"
      ],
      [
        "Ġo",
        "u"
      ],
      [
        "Ġdise",
        "ase"
      ],
      [
        "ãĤ",
        "·"
      ],
      [
        "ci",
        "Ã³n"
      ],
      [
        "d",
        "iv"
      ],
      [
        "ĠM",
        "e"
      ],
      [
        "Ð´",
        "Ð°"
      ],
      [
        "Ġs",
        "am"
      ],
      [
        "id",
        "ed"
      ],
      [
        "Ġbet",
        "ter"
      ],
      [
        "es",
        "c"
      ],
      [
        "pr",
        "ession"
      ],
      [
        "Ġposs",
        "ible"
      ],
      [
        "3",
        "6"
      ],
      [
        "Ġwe",
        "ek"
      ],
      [
        "is",
        "che"
      ],
      [
        "ĠÐ",
        "Ķ"
      ],
      [
        "ãĤ",
        "¿"
      ],
      [
        "Ġme",
        "an"
      ],
      [
        "id",
        "ence"
      ],
      [
        "v",
        "ious"
      ],
      [
        "Ġun",
        "til"
      ],
      [
        "ÐµÐ»",
        "ÑĮ"
      ],
      [
        "p",
        "re"
      ],
      [
        "ĠR",
        "eg"
      ],
      [
        "Ġla",
        "w"
      ],
      [
        "ab",
        "les"
      ],
      [
        "Ġl",
        "arg"
      ],
      [
        "j",
        "a"
      ],
      [
        "ãģ",
        "Ŀ"
      ],
      [
        "Ð´",
        "Ð¸"
      ],
      [
        "åŃ",
        "¦"
      ],
      [
        "Ġinv",
        "est"
      ],
      [
        "or",
        "ies"
      ],
      [
        "Ġwur",
        "de"
      ],
      [
        "ë¡",
        "ľ"
      ],
      [
        "c",
        "le"
      ],
      [
        "im",
        "ate"
      ],
      [
        "i",
        "Ã³"
      ],
      [
        "ac",
        "es"
      ],
      [
        "Ġ",
        "Ùģ"
      ],
      [
        "Ġv",
        "ar"
      ],
      [
        "Ġ",
        "x"
      ],
      [
        "Ġen",
        "vironment"
      ],
      [
        "n",
        "ame"
      ],
      [
        "A",
        "N"
      ],
      [
        "Ġsu",
        "ccess"
      ],
      [
        "y",
        "t"
      ],
      [
        "Ġinter",
        "n"
      ],
      [
        "eth",
        "er"
      ],
      [
        "us",
        "h"
      ],
      [
        "Ġm",
        "emb"
      ],
      [
        "Ġd",
        "om"
      ],
      [
        "íķ",
        "ľ"
      ],
      [
        "he",
        "m"
      ],
      [
        "å",
        "Ĵ"
      ],
      [
        "Ġp",
        "ap"
      ],
      [
        "ãģĻ",
        "ãĤĭ"
      ],
      [
        "Ġsignific",
        "ant"
      ],
      [
        "\"",
        ">Ċ"
      ],
      [
        "pl",
        "oy"
      ],
      [
        "é",
        "ĸ"
      ],
      [
[...]
